<unk> 0
<|nospeech|> 1
<pad> 2
<|endoftext|> 3
<|startoftranscript|> 4
<|pnc|> 5
<|nopnc|> 6
<|startofcontext|> 7
<|itn|> 8
<|noitn|> 9
<|timestamp|> 10
<|notimestamp|> 11
<|diarize|> 12
<|nodiarize|> 13
<|spkchange|> 14
<|audioseparator|> 15
<|emo:undefined|> 16
<|emo:neutral|> 17
<|emo:happy|> 18
<|emo:sad|> 19
<|emo:angry|> 20
<|unklang|> 21
<|predict_lang|> 22
<|nopredict_lang|> 23
<|aa|> 24
<|ab|> 25
<|af|> 26
<|ak|> 27
<|sq|> 28
<|am|> 29
<|ar|> 30
<|an|> 31
<|hy|> 32
<|as|> 33
<|av|> 34
<|ae|> 35
<|ay|> 36
<|az|> 37
<|bm|> 38
<|ba|> 39
<|eu|> 40
<|be|> 41
<|bn|> 42
<|bi|> 43
<|bs|> 44
<|br|> 45
<|bg|> 46
<|my|> 47
<|ca|> 48
<|ch|> 49
<|ce|> 50
<|ny|> 51
<|zh|> 52
<|cu|> 53
<|cv|> 54
<|kw|> 55
<|co|> 56
<|cr|> 57
<|hr|> 58
<|cs|> 59
<|da|> 60
<|dv|> 61
<|nl|> 62
<|dz|> 63
<|en|> 64
<|eo|> 65
<|et|> 66
<|ee|> 67
<|fo|> 68
<|fj|> 69
<|fi|> 70
<|fr|> 71
<|fy|> 72
<|ff|> 73
<|gd|> 74
<|gl|> 75
<|lg|> 76
<|ka|> 77
<|de|> 78
<|el|> 79
<|kl|> 80
<|gn|> 81
<|gu|> 82
<|ht|> 83
<|ha|> 84
<|he|> 85
<|hz|> 86
<|hi|> 87
<|ho|> 88
<|hu|> 89
<|is|> 90
<|io|> 91
<|ig|> 92
<|id|> 93
<|ia|> 94
<|ie|> 95
<|iu|> 96
<|ik|> 97
<|ga|> 98
<|it|> 99
<|ja|> 100
<|jv|> 101
<|kn|> 102
<|kr|> 103
<|ks|> 104
<|kk|> 105
<|km|> 106
<|ki|> 107
<|rw|> 108
<|ky|> 109
<|kv|> 110
<|kg|> 111
<|ko|> 112
<|kj|> 113
<|ku|> 114
<|lo|> 115
<|la|> 116
<|lv|> 117
<|li|> 118
<|ln|> 119
<|lt|> 120
<|lu|> 121
<|lb|> 122
<|mk|> 123
<|mg|> 124
<|ms|> 125
<|ml|> 126
<|mt|> 127
<|gv|> 128
<|mi|> 129
<|mr|> 130
<|mh|> 131
<|mn|> 132
<|na|> 133
<|nv|> 134
<|nd|> 135
<|nr|> 136
<|ng|> 137
<|ne|> 138
<|no|> 139
<|nb|> 140
<|nn|> 141
<|oc|> 142
<|oj|> 143
<|or|> 144
<|om|> 145
<|os|> 146
<|pi|> 147
<|ps|> 148
<|fa|> 149
<|pl|> 150
<|pt|> 151
<|pa|> 152
<|qu|> 153
<|ro|> 154
<|rm|> 155
<|rn|> 156
<|ru|> 157
<|se|> 158
<|sm|> 159
<|sg|> 160
<|sa|> 161
<|sc|> 162
<|sr|> 163
<|sn|> 164
<|sd|> 165
<|si|> 166
<|sk|> 167
<|sl|> 168
<|so|> 169
<|st|> 170
<|es|> 171
<|su|> 172
<|sw|> 173
<|ss|> 174
<|sv|> 175
<|tl|> 176
<|ty|> 177
<|tg|> 178
<|ta|> 179
<|tt|> 180
<|te|> 181
<|th|> 182
<|bo|> 183
<|ti|> 184
<|to|> 185
<|ts|> 186
<|tn|> 187
<|tr|> 188
<|tk|> 189
<|tw|> 190
<|ug|> 191
<|uk|> 192
<|ur|> 193
<|uz|> 194
<|ve|> 195
<|vi|> 196
<|vo|> 197
<|wa|> 198
<|cy|> 199
<|wo|> 200
<|xh|> 201
<|ii|> 202
<|yi|> 203
<|yo|> 204
<|za|> 205
<|zu|> 206
<|0|> 207
<|1|> 208
<|2|> 209
<|3|> 210
<|4|> 211
<|5|> 212
<|6|> 213
<|7|> 214
<|8|> 215
<|9|> 216
<|10|> 217
<|11|> 218
<|12|> 219
<|13|> 220
<|14|> 221
<|15|> 222
<|16|> 223
<|17|> 224
<|18|> 225
<|19|> 226
<|20|> 227
<|21|> 228
<|22|> 229
<|23|> 230
<|24|> 231
<|25|> 232
<|26|> 233
<|27|> 234
<|28|> 235
<|29|> 236
<|30|> 237
<|31|> 238
<|32|> 239
<|33|> 240
<|34|> 241
<|35|> 242
<|36|> 243
<|37|> 244
<|38|> 245
<|39|> 246
<|40|> 247
<|41|> 248
<|42|> 249
<|43|> 250
<|44|> 251
<|45|> 252
<|46|> 253
<|47|> 254
<|48|> 255
<|49|> 256
<|50|> 257
<|51|> 258
<|52|> 259
<|53|> 260
<|54|> 261
<|55|> 262
<|56|> 263
<|57|> 264
<|58|> 265
<|59|> 266
<|60|> 267
<|61|> 268
<|62|> 269
<|63|> 270
<|64|> 271
<|65|> 272
<|66|> 273
<|67|> 274
<|68|> 275
<|69|> 276
<|70|> 277
<|71|> 278
<|72|> 279
<|73|> 280
<|74|> 281
<|75|> 282
<|76|> 283
<|77|> 284
<|78|> 285
<|79|> 286
<|80|> 287
<|81|> 288
<|82|> 289
<|83|> 290
<|84|> 291
<|85|> 292
<|86|> 293
<|87|> 294
<|88|> 295
<|89|> 296
<|90|> 297
<|91|> 298
<|92|> 299
<|93|> 300
<|94|> 301
<|95|> 302
<|96|> 303
<|97|> 304
<|98|> 305
<|99|> 306
<|100|> 307
<|101|> 308
<|102|> 309
<|103|> 310
<|104|> 311
<|105|> 312
<|106|> 313
<|107|> 314
<|108|> 315
<|109|> 316
<|110|> 317
<|111|> 318
<|112|> 319
<|113|> 320
<|114|> 321
<|115|> 322
<|116|> 323
<|117|> 324
<|118|> 325
<|119|> 326
<|120|> 327
<|121|> 328
<|122|> 329
<|123|> 330
<|124|> 331
<|125|> 332
<|126|> 333
<|127|> 334
<|128|> 335
<|129|> 336
<|130|> 337
<|131|> 338
<|132|> 339
<|133|> 340
<|134|> 341
<|135|> 342
<|136|> 343
<|137|> 344
<|138|> 345
<|139|> 346
<|140|> 347
<|141|> 348
<|142|> 349
<|143|> 350
<|144|> 351
<|145|> 352
<|146|> 353
<|147|> 354
<|148|> 355
<|149|> 356
<|150|> 357
<|151|> 358
<|152|> 359
<|153|> 360
<|154|> 361
<|155|> 362
<|156|> 363
<|157|> 364
<|158|> 365
<|159|> 366
<|160|> 367
<|161|> 368
<|162|> 369
<|163|> 370
<|164|> 371
<|165|> 372
<|166|> 373
<|167|> 374
<|168|> 375
<|169|> 376
<|170|> 377
<|171|> 378
<|172|> 379
<|173|> 380
<|174|> 381
<|175|> 382
<|176|> 383
<|177|> 384
<|178|> 385
<|179|> 386
<|180|> 387
<|181|> 388
<|182|> 389
<|183|> 390
<|184|> 391
<|185|> 392
<|186|> 393
<|187|> 394
<|188|> 395
<|189|> 396
<|190|> 397
<|191|> 398
<|192|> 399
<|193|> 400
<|194|> 401
<|195|> 402
<|196|> 403
<|197|> 404
<|198|> 405
<|199|> 406
<|200|> 407
<|201|> 408
<|202|> 409
<|203|> 410
<|204|> 411
<|205|> 412
<|206|> 413
<|207|> 414
<|208|> 415
<|209|> 416
<|210|> 417
<|211|> 418
<|212|> 419
<|213|> 420
<|214|> 421
<|215|> 422
<|216|> 423
<|217|> 424
<|218|> 425
<|219|> 426
<|220|> 427
<|221|> 428
<|222|> 429
<|223|> 430
<|224|> 431
<|225|> 432
<|226|> 433
<|227|> 434
<|228|> 435
<|229|> 436
<|230|> 437
<|231|> 438
<|232|> 439
<|233|> 440
<|234|> 441
<|235|> 442
<|236|> 443
<|237|> 444
<|238|> 445
<|239|> 446
<|240|> 447
<|241|> 448
<|242|> 449
<|243|> 450
<|244|> 451
<|245|> 452
<|246|> 453
<|247|> 454
<|248|> 455
<|249|> 456
<|250|> 457
<|251|> 458
<|252|> 459
<|253|> 460
<|254|> 461
<|255|> 462
<|256|> 463
<|257|> 464
<|258|> 465
<|259|> 466
<|260|> 467
<|261|> 468
<|262|> 469
<|263|> 470
<|264|> 471
<|265|> 472
<|266|> 473
<|267|> 474
<|268|> 475
<|269|> 476
<|270|> 477
<|271|> 478
<|272|> 479
<|273|> 480
<|274|> 481
<|275|> 482
<|276|> 483
<|277|> 484
<|278|> 485
<|279|> 486
<|280|> 487
<|281|> 488
<|282|> 489
<|283|> 490
<|284|> 491
<|285|> 492
<|286|> 493
<|287|> 494
<|288|> 495
<|289|> 496
<|290|> 497
<|291|> 498
<|292|> 499
<|293|> 500
<|294|> 501
<|295|> 502
<|296|> 503
<|297|> 504
<|298|> 505
<|299|> 506
<|300|> 507
<|301|> 508
<|302|> 509
<|303|> 510
<|304|> 511
<|305|> 512
<|306|> 513
<|307|> 514
<|308|> 515
<|309|> 516
<|310|> 517
<|311|> 518
<|312|> 519
<|313|> 520
<|314|> 521
<|315|> 522
<|316|> 523
<|317|> 524
<|318|> 525
<|319|> 526
<|320|> 527
<|321|> 528
<|322|> 529
<|323|> 530
<|324|> 531
<|325|> 532
<|326|> 533
<|327|> 534
<|328|> 535
<|329|> 536
<|330|> 537
<|331|> 538
<|332|> 539
<|333|> 540
<|334|> 541
<|335|> 542
<|336|> 543
<|337|> 544
<|338|> 545
<|339|> 546
<|340|> 547
<|341|> 548
<|342|> 549
<|343|> 550
<|344|> 551
<|345|> 552
<|346|> 553
<|347|> 554
<|348|> 555
<|349|> 556
<|350|> 557
<|351|> 558
<|352|> 559
<|353|> 560
<|354|> 561
<|355|> 562
<|356|> 563
<|357|> 564
<|358|> 565
<|359|> 566
<|360|> 567
<|361|> 568
<|362|> 569
<|363|> 570
<|364|> 571
<|365|> 572
<|366|> 573
<|367|> 574
<|368|> 575
<|369|> 576
<|370|> 577
<|371|> 578
<|372|> 579
<|373|> 580
<|374|> 581
<|375|> 582
<|376|> 583
<|377|> 584
<|378|> 585
<|379|> 586
<|380|> 587
<|381|> 588
<|382|> 589
<|383|> 590
<|384|> 591
<|385|> 592
<|386|> 593
<|387|> 594
<|388|> 595
<|389|> 596
<|390|> 597
<|391|> 598
<|392|> 599
<|393|> 600
<|394|> 601
<|395|> 602
<|396|> 603
<|397|> 604
<|398|> 605
<|399|> 606
<|400|> 607
<|401|> 608
<|402|> 609
<|403|> 610
<|404|> 611
<|405|> 612
<|406|> 613
<|407|> 614
<|408|> 615
<|409|> 616
<|410|> 617
<|411|> 618
<|412|> 619
<|413|> 620
<|414|> 621
<|415|> 622
<|416|> 623
<|417|> 624
<|418|> 625
<|419|> 626
<|420|> 627
<|421|> 628
<|422|> 629
<|423|> 630
<|424|> 631
<|425|> 632
<|426|> 633
<|427|> 634
<|428|> 635
<|429|> 636
<|430|> 637
<|431|> 638
<|432|> 639
<|433|> 640
<|434|> 641
<|435|> 642
<|436|> 643
<|437|> 644
<|438|> 645
<|439|> 646
<|440|> 647
<|441|> 648
<|442|> 649
<|443|> 650
<|444|> 651
<|445|> 652
<|446|> 653
<|447|> 654
<|448|> 655
<|449|> 656
<|450|> 657
<|451|> 658
<|452|> 659
<|453|> 660
<|454|> 661
<|455|> 662
<|456|> 663
<|457|> 664
<|458|> 665
<|459|> 666
<|460|> 667
<|461|> 668
<|462|> 669
<|463|> 670
<|464|> 671
<|465|> 672
<|466|> 673
<|467|> 674
<|468|> 675
<|469|> 676
<|470|> 677
<|471|> 678
<|472|> 679
<|473|> 680
<|474|> 681
<|475|> 682
<|476|> 683
<|477|> 684
<|478|> 685
<|479|> 686
<|480|> 687
<|481|> 688
<|482|> 689
<|483|> 690
<|484|> 691
<|485|> 692
<|486|> 693
<|487|> 694
<|488|> 695
<|489|> 696
<|490|> 697
<|491|> 698
<|492|> 699
<|493|> 700
<|494|> 701
<|495|> 702
<|496|> 703
<|497|> 704
<|498|> 705
<|499|> 706
<|500|> 707
<|501|> 708
<|502|> 709
<|503|> 710
<|504|> 711
<|505|> 712
<|506|> 713
<|507|> 714
<|508|> 715
<|509|> 716
<|510|> 717
<|511|> 718
<|512|> 719
<|513|> 720
<|514|> 721
<|515|> 722
<|516|> 723
<|517|> 724
<|518|> 725
<|519|> 726
<|520|> 727
<|521|> 728
<|522|> 729
<|523|> 730
<|524|> 731
<|525|> 732
<|526|> 733
<|527|> 734
<|528|> 735
<|529|> 736
<|530|> 737
<|531|> 738
<|532|> 739
<|533|> 740
<|534|> 741
<|535|> 742
<|536|> 743
<|537|> 744
<|538|> 745
<|539|> 746
<|540|> 747
<|541|> 748
<|542|> 749
<|543|> 750
<|544|> 751
<|545|> 752
<|546|> 753
<|547|> 754
<|548|> 755
<|549|> 756
<|550|> 757
<|551|> 758
<|552|> 759
<|553|> 760
<|554|> 761
<|555|> 762
<|556|> 763
<|557|> 764
<|558|> 765
<|559|> 766
<|560|> 767
<|561|> 768
<|562|> 769
<|563|> 770
<|564|> 771
<|565|> 772
<|566|> 773
<|567|> 774
<|568|> 775
<|569|> 776
<|570|> 777
<|571|> 778
<|572|> 779
<|573|> 780
<|574|> 781
<|575|> 782
<|576|> 783
<|577|> 784
<|578|> 785
<|579|> 786
<|580|> 787
<|581|> 788
<|582|> 789
<|583|> 790
<|584|> 791
<|585|> 792
<|586|> 793
<|587|> 794
<|588|> 795
<|589|> 796
<|590|> 797
<|591|> 798
<|592|> 799
<|593|> 800
<|594|> 801
<|595|> 802
<|596|> 803
<|597|> 804
<|598|> 805
<|599|> 806
<|600|> 807
<|601|> 808
<|602|> 809
<|603|> 810
<|604|> 811
<|605|> 812
<|606|> 813
<|607|> 814
<|608|> 815
<|609|> 816
<|610|> 817
<|611|> 818
<|612|> 819
<|613|> 820
<|614|> 821
<|615|> 822
<|616|> 823
<|617|> 824
<|618|> 825
<|619|> 826
<|620|> 827
<|621|> 828
<|622|> 829
<|623|> 830
<|624|> 831
<|625|> 832
<|626|> 833
<|627|> 834
<|628|> 835
<|629|> 836
<|630|> 837
<|631|> 838
<|632|> 839
<|633|> 840
<|634|> 841
<|635|> 842
<|636|> 843
<|637|> 844
<|638|> 845
<|639|> 846
<|640|> 847
<|641|> 848
<|642|> 849
<|643|> 850
<|644|> 851
<|645|> 852
<|646|> 853
<|647|> 854
<|648|> 855
<|649|> 856
<|650|> 857
<|651|> 858
<|652|> 859
<|653|> 860
<|654|> 861
<|655|> 862
<|656|> 863
<|657|> 864
<|658|> 865
<|659|> 866
<|660|> 867
<|661|> 868
<|662|> 869
<|663|> 870
<|664|> 871
<|665|> 872
<|666|> 873
<|667|> 874
<|668|> 875
<|669|> 876
<|670|> 877
<|671|> 878
<|672|> 879
<|673|> 880
<|674|> 881
<|675|> 882
<|676|> 883
<|677|> 884
<|678|> 885
<|679|> 886
<|680|> 887
<|681|> 888
<|682|> 889
<|683|> 890
<|684|> 891
<|685|> 892
<|686|> 893
<|687|> 894
<|688|> 895
<|689|> 896
<|690|> 897
<|691|> 898
<|692|> 899
<|693|> 900
<|694|> 901
<|695|> 902
<|696|> 903
<|697|> 904
<|698|> 905
<|699|> 906
<|700|> 907
<|701|> 908
<|702|> 909
<|703|> 910
<|704|> 911
<|705|> 912
<|706|> 913
<|707|> 914
<|708|> 915
<|709|> 916
<|710|> 917
<|711|> 918
<|712|> 919
<|713|> 920
<|714|> 921
<|715|> 922
<|716|> 923
<|717|> 924
<|718|> 925
<|719|> 926
<|720|> 927
<|721|> 928
<|722|> 929
<|723|> 930
<|724|> 931
<|725|> 932
<|726|> 933
<|727|> 934
<|728|> 935
<|729|> 936
<|730|> 937
<|731|> 938
<|732|> 939
<|733|> 940
<|734|> 941
<|735|> 942
<|736|> 943
<|737|> 944
<|738|> 945
<|739|> 946
<|740|> 947
<|741|> 948
<|742|> 949
<|743|> 950
<|744|> 951
<|745|> 952
<|746|> 953
<|747|> 954
<|748|> 955
<|749|> 956
<|750|> 957
<|751|> 958
<|752|> 959
<|753|> 960
<|754|> 961
<|755|> 962
<|756|> 963
<|757|> 964
<|758|> 965
<|759|> 966
<|760|> 967
<|761|> 968
<|762|> 969
<|763|> 970
<|764|> 971
<|765|> 972
<|766|> 973
<|767|> 974
<|768|> 975
<|769|> 976
<|770|> 977
<|771|> 978
<|772|> 979
<|773|> 980
<|774|> 981
<|775|> 982
<|776|> 983
<|777|> 984
<|778|> 985
<|779|> 986
<|780|> 987
<|781|> 988
<|782|> 989
<|783|> 990
<|784|> 991
<|785|> 992
<|786|> 993
<|787|> 994
<|788|> 995
<|789|> 996
<|790|> 997
<|791|> 998
<|792|> 999
<|793|> 1000
<|794|> 1001
<|795|> 1002
<|796|> 1003
<|797|> 1004
<|798|> 1005
<|799|> 1006
<|800|> 1007
<|801|> 1008
<|802|> 1009
<|803|> 1010
<|804|> 1011
<|805|> 1012
<|806|> 1013
<|807|> 1014
<|808|> 1015
<|809|> 1016
<|810|> 1017
<|811|> 1018
<|812|> 1019
<|813|> 1020
<|814|> 1021
<|815|> 1022
<|816|> 1023
<|817|> 1024
<|818|> 1025
<|819|> 1026
<|820|> 1027
<|821|> 1028
<|822|> 1029
<|823|> 1030
<|824|> 1031
<|825|> 1032
<|826|> 1033
<|827|> 1034
<|828|> 1035
<|829|> 1036
<|830|> 1037
<|831|> 1038
<|832|> 1039
<|833|> 1040
<|834|> 1041
<|835|> 1042
<|836|> 1043
<|837|> 1044
<|838|> 1045
<|839|> 1046
<|840|> 1047
<|841|> 1048
<|842|> 1049
<|843|> 1050
<|844|> 1051
<|845|> 1052
<|846|> 1053
<|847|> 1054
<|848|> 1055
<|849|> 1056
<|850|> 1057
<|851|> 1058
<|852|> 1059
<|853|> 1060
<|854|> 1061
<|855|> 1062
<|856|> 1063
<|857|> 1064
<|858|> 1065
<|859|> 1066
<|860|> 1067
<|861|> 1068
<|862|> 1069
<|863|> 1070
<|864|> 1071
<|865|> 1072
<|866|> 1073
<|867|> 1074
<|868|> 1075
<|869|> 1076
<|870|> 1077
<|871|> 1078
<|872|> 1079
<|873|> 1080
<|874|> 1081
<|875|> 1082
<|876|> 1083
<|877|> 1084
<|878|> 1085
<|879|> 1086
<|880|> 1087
<|881|> 1088
<|882|> 1089
<|883|> 1090
<|884|> 1091
<|885|> 1092
<|886|> 1093
<|887|> 1094
<|888|> 1095
<|889|> 1096
<|890|> 1097
<|891|> 1098
<|892|> 1099
<|893|> 1100
<|894|> 1101
<|895|> 1102
<|896|> 1103
<|897|> 1104
<|898|> 1105
<|899|> 1106
<|spk0|> 1107
<|spk1|> 1108
<|spk2|> 1109
<|spk3|> 1110
<|spk4|> 1111
<|spk5|> 1112
<|spk6|> 1113
<|spk7|> 1114
<|spk8|> 1115
<|spk9|> 1116
<|spk10|> 1117
<|spk11|> 1118
<|spk12|> 1119
<|spk13|> 1120
<|spk14|> 1121
<|spk15|> 1122
0 1123
1 1124
2 1125
3 1126
4 1127
5 1128
6 1129
7 1130
8 1131
9 1132
<|spltoken0|> 1133
<|spltoken1|> 1134
<|spltoken2|> 1135
<|spltoken3|> 1136
<|spltoken4|> 1137
<|spltoken5|> 1138
<|spltoken6|> 1139
<|spltoken7|> 1140
<|spltoken8|> 1141
<|spltoken9|> 1142
<|spltoken10|> 1143
<|spltoken11|> 1144
<|spltoken12|> 1145
<|spltoken13|> 1146
<|spltoken14|> 1147
<|spltoken15|> 1148
<|spltoken16|> 1149
<|spltoken17|> 1150
<|spltoken18|> 1151
<|spltoken19|> 1152
<|spltoken20|> 1153
<|spltoken21|> 1154
<|spltoken22|> 1155
<|spltoken23|> 1156
<|spltoken24|> 1157
<|spltoken25|> 1158
<|spltoken26|> 1159
<|spltoken27|> 1160
<|spltoken28|> 1161
<|spltoken29|> 1162
en 1163
▁s 1164
▁d 1165
er 1166
▁t 1167
▁a 1168
▁p 1169
in 1170
▁m 1171
es 1172
an 1173
▁n 1174
▁v 1175
ar 1176
on 1177
is 1178
▁k 1179
et 1180
el 1181
▁l 1182
or 1183
at 1184
al 1185
▁c 1186
▁o 1187
as 1188
it 1189
▁j 1190
▁h 1191
▁b 1192
re 1193
il 1194
ie 1195
▁u 1196
▁f 1197
os 1198
ch 1199
em 1200
om 1201
▁i 1202
ra 1203
te 1204
am 1205
▁g 1206
▁de 1207
ro 1208
ad 1209
ti 1210
us 1211
ed 1212
▁w 1213
▁z 1214
ol 1215
▁e 1216
ta 1217
id 1218
un 1219
▁in 1220
▁п 1221
ur 1222
im 1223
ik 1224
▁н 1225
le 1226
ent 1227
▁с 1228
ak 1229
▁в 1230
▁S 1231
qu 1232
то 1233
he 1234
▁A 1235
li 1236
▁to 1237
▁se 1238
ut 1239
▁T 1240
ul 1241
ij 1242
▁un 1243
▁po 1244
▁M 1245
▁je 1246
▁r 1247
▁na 1248
ia 1249
ig 1250
ov 1251
ic 1252
▁D 1253
▁E 1254
▁д 1255
est 1256
▁pr 1257
▁en 1258
▁qu 1259
ing 1260
st 1261
▁I 1262
eg 1263
ag 1264
ot 1265
ir 1266
od 1267
▁P 1268
ud 1269
ра 1270
та 1271
▁τ 1272
▁la 1273
▁an 1274
ek 1275
um 1276
▁N 1277
ни 1278
av 1279
ко 1280
iv 1281
те 1282
но 1283
▁на 1284
ва 1285
ist 1286
la 1287
ро 1288
▁the 1289
▁з 1290
de 1291
▁о 1292
▁st 1293
▁и 1294
og 1295
ci 1296
▁м 1297
ai 1298
▁al 1299
▁J 1300
▁at 1301
▁ne 1302
▁C 1303
ли 1304
▁H 1305
▁on 1306
ти 1307
▁re 1308
aj 1309
and 1310
▁B 1311
ре 1312
▁по 1313
ou 1314
▁es 1315
ка 1316
ok 1317
на 1318
▁pro 1319
ου 1320
ne 1321
je 1322
▁K 1323
ion 1324
to 1325
ter 1326
ien 1327
▁L 1328
ab 1329
▁y 1330
▁π 1331
▁б 1332
▁V 1333
▁da 1334
го 1335
▁que 1336
▁su 1337
na 1338
ce 1339
▁par 1340
ри 1341
▁O 1342
▁do 1343
▁el 1344
▁α 1345
ka 1346
να 1347
▁ja 1348
ja 1349
ru 1350
▁et 1351
▁con 1352
▁é 1353
se 1354
▁th 1355
▁κ 1356
▁σ 1357
no 1358
▁er 1359
ap 1360
▁di 1361
ст 1362
▁is 1363
▁ε 1364
▁te 1365
▁si 1366
ен 1367
▁le 1368
▁ч 1369
▁sp 1370
ma 1371
ere 1372
▁ma 1373
ni 1374
▁com 1375
ri 1376
▁μ 1377
▁for 1378
ost 1379
me 1380
▁of 1381
än 1382
▁за 1383
are 1384
ers 1385
▁W 1386
end 1387
ko 1388
▁G 1389
▁sa 1390
▁no 1391
▁and 1392
ke 1393
är 1394
ve 1395
ла 1396
▁li 1397
▁ir 1398
▁не 1399
ess 1400
▁ž 1401
▁so 1402
▁F 1403
▁vi 1404
▁me 1405
ill 1406
ant 1407
▁R 1408
αι 1409
ле 1410
во 1411
ine 1412
▁U 1413
▁be 1414
ell 1415
ho 1416
iz 1417
ac 1418
ть 1419
▁il 1420
▁š 1421
vo 1422
si 1423
▁ко 1424
va 1425
ει 1426
ast 1427
▁ar 1428
▁vo 1429
▁det 1430
ver 1431
▁î 1432
▁ra 1433
▁tr 1434
ör 1435
ob 1436
ви 1437
▁pre 1438
pp 1439
ки 1440
ze 1441
ind 1442
ло 1443
ans 1444
ль 1445
io 1446
ten 1447
ge 1448
▁я 1449
▁е 1450
ich 1451
ks 1452
tu 1453
ju 1454
▁ta 1455
да 1456
ali 1457
ow 1458
ate 1459
iet 1460
▁od 1461
▁du 1462
ele 1463
ся 1464
ια 1465
▁im 1466
sa 1467
▁în 1468
da 1469
zy 1470
ite 1471
ма 1472
▁as 1473
▁per 1474
де 1475
▁да 1476
▁ka 1477
▁som 1478
ku 1479
ди 1480
▁za 1481
▁у 1482
▁ro 1483
ente 1484
pr 1485
τε 1486
τα 1487
ens 1488
τι 1489
ве 1490
ny 1491
▁ob 1492
ort 1493
az 1494
▁op 1495
all 1496
▁до 1497
▁den 1498
▁des 1499
op 1500
▁ve 1501
▁ver 1502
▁про 1503
ui 1504
же 1505
▁ch 1506
▁he 1507
ão 1508
не 1509
▁mo 1510
▁die 1511
ier 1512
sk 1513
gy 1514
iem 1515
▁ab 1516
▁by 1517
▁der 1518
au 1519
▁δ 1520
▁og 1521
ust 1522
▁att 1523
ord 1524
▁min 1525
▁van 1526
▁то 1527
ál 1528
▁ș 1529
▁č 1530
▁var 1531
▁να 1532
lu 1533
▁om 1534
▁ko 1535
lo 1536
▁та 1537
що 1538
gen 1539
ми 1540
▁sk 1541
der 1542
ran 1543
ys 1544
▁um 1545
ás 1546
▁am 1547
▁се 1548
▁το 1549
ля 1550
du 1551
ati 1552
▁τη 1553
ме 1554
ff 1555
ga 1556
га 1557
▁est 1558
▁ac 1559
▁mu 1560
▁iz 1561
▁мо 1562
▁man 1563
ation 1564
мо 1565
▁от 1566
▁pas 1567
▁tak 1568
▁we 1569
▁а 1570
ih 1571
ts 1572
▁ка 1573
▁Z 1574
ija 1575
▁del 1576
▁к 1577
nd 1578
▁nu 1579
▁med 1580
▁tal 1581
▁pe 1582
dz 1583
għ 1584
πο 1585
pe 1586
▁και 1587
▁pl 1588
ont 1589
▁och 1590
ale 1591
be 1592
▁ex 1593
ní 1594
▁au 1595
mi 1596
▁pos 1597
den 1598
iti 1599
ck 1600
▁av 1601
▁ви 1602
▁het 1603
το 1604
▁și 1605
ρο 1606
ha 1607
és 1608
tor 1609
▁т 1610
ada 1611
▁it 1612
iss 1613
tä 1614
ade 1615
wa 1616
ly 1617
ber 1618
ba 1619
po 1620
ina 1621
▁že 1622
ру 1623
ρα 1624
▁va 1625
▁und 1626
▁nie 1627
▁mi 1628
▁ik 1629
▁έ 1630
▁sz 1631
▁ό 1632
▁em 1633
▁ра 1634
ili 1635
▁på 1636
по 1637
ala 1638
▁os 1639
▁és 1640
ug 1641
▁che 1642
▁ц 1643
▁that 1644
ше 1645
▁sam 1646
for 1647
▁kom 1648
▁γ 1649
μα 1650
▁Т 1651
át 1652
pl 1653
ven 1654
yt 1655
ib 1656
▁för 1657
ato 1658
▁ge 1659
▁af 1660
▁pu 1661
▁was 1662
ete 1663
ki 1664
ile 1665
чи 1666
▁ol 1667
ți 1668
ні 1669
za 1670
tr 1671
▁să 1672
ons 1673
ji 1674
че 1675
ass 1676
jo 1677
▁een 1678
▁че 1679
хо 1680
▁lo 1681
τη 1682
ät 1683
▁or 1684
▁għ 1685
kt 1686
ies 1687
▁az 1688
ca 1689
▁co 1690
▁ap 1691
und 1692
до 1693
▁tu 1694
му 1695
▁і 1696
né 1697
ικ 1698
▁por 1699
ond 1700
ogy 1701
▁pod 1702
äl 1703
▁para 1704
nie 1705
▁э 1706
▁ku 1707
ista 1708
rav 1709
zi 1710
▁De 1711
ben 1712
mer 1713
▁Н 1714
▁ter 1715
bi 1716
με 1717
▁pa 1718
▁εί 1719
art 1720
ide 1721
bl 1722
so 1723
▁men 1724
▁pol 1725
mo 1726
▁що 1727
per 1728
ня 1729
▁В 1730
ore 1731
▁του 1732
bu 1733
ны 1734
▁ni 1735
▁har 1736
се 1737
▁ein 1738
▁ha 1739
men 1740
ung 1741
▁при 1742
hr 1743
▁à 1744
за 1745
▁dat 1746
▁ο 1747
▁ser 1748
▁är 1749
▁In 1750
ave 1751
ett 1752
▁kad 1753
▁что 1754
▁En 1755
ча 1756
▁cu 1757
red 1758
бо 1759
ang 1760
▁sv 1761
▁fr 1762
▁hogy 1763
ard 1764
▁les 1765
oll 1766
ando 1767
ér 1768
▁Se 1769
▁ce 1770
ρι 1771
сто 1772
že 1773
▁Ja 1774
dy 1775
ще 1776
▁vis 1777
▁ki 1778
ht 1779
ej 1780
ara 1781
ult 1782
▁jo 1783
uri 1784
ци 1785
▁kan 1786
▁го 1787
си 1788
▁you 1789
tre 1790
jen 1791
ata 1792
▁ho 1793
▁ż 1794
▁με 1795
jon 1796
ement 1797
ado 1798
▁met 1799
▁wh 1800
ram 1801
▁nem 1802
gi 1803
che 1804
▁П 1805
▁meg 1806
εί 1807
▁til 1808
▁una 1809
ση 1810
▁из 1811
ку 1812
▁бу 1813
ym 1814
▁ü 1815
sz 1816
kk 1817
esti 1818
▁С 1819
νο 1820
ід 1821
án 1822
▁Y 1823
pa 1824
▁tem 1825
▁val 1826
▁ist 1827
ila 1828
co 1829
▁tie 1830
▁all 1831
ela 1832
ón 1833
▁kon 1834
ím 1835
bo 1836
▁tai 1837
ár 1838
▁The 1839
ede 1840
сти 1841
▁пре 1842
▁Al 1843
▁dar 1844
πό 1845
ento 1846
vi 1847
ста 1848
▁г 1849
elle 1850
▁vol 1851
▁Д 1852
rat 1853
ши 1854
▁Ma 1855
kl 1856
▁dis 1857
ika 1858
зи 1859
cz 1860
ste 1861
ici 1862
▁res 1863
ego 1864
▁ei 1865
que 1866
▁lu 1867
ime 1868
ita 1869
ako 1870
her 1871
ana 1872
ijn 1873
▁во 1874
▁egy 1875
▁об 1876
gu 1877
amo 1878
▁Ne 1879
▁tra 1880
ning 1881
tav 1882
ну 1883
жи 1884
ida 1885
ер 1886
лю 1887
ég 1888
▁те 1889
go 1890
сь 1891
res 1892
rit 1893
▁kun 1894
ise 1895
▁sem 1896
nos 1897
▁ad 1898
ega 1899
▁To 1900
ini 1901
▁κα 1902
nen 1903
▁my 1904
▁К 1905
▁că 1906
era 1907
ám 1908
uro 1909
zt 1910
one 1911
▁М 1912
▁din 1913
ναι 1914
ije 1915
att 1916
ít 1917
▁си 1918
do 1919
▁mit 1920
ów 1921
int 1922
ър 1923
uj 1924
▁kas 1925
▁Je 1926
▁bu 1927
år 1928
▁dem 1929
▁jed 1930
▁bi 1931
▁fil 1932
▁θ 1933
ния 1934
ých 1935
ima 1936
ct 1937
ama 1938
▁zu 1939
▁ale 1940
▁fin 1941
▁ма 1942
olo 1943
ito 1944
ano 1945
▁się 1946
▁ú 1947
▁ħ 1948
lig 1949
ft 1950
▁ми 1951
▁sig 1952
use 1953
ip 1954
▁inter 1955
ame 1956
ία 1957
ів 1958
áv 1959
ων 1960
elt 1961
▁Un 1962
ora 1963
▁О 1964
▁για 1965
eli 1966
eda 1967
ler 1968
ду 1969
ces 1970
unt 1971
ica 1972
ami 1973
ry 1974
ние 1975
cu 1976
▁viņ 1977
би 1978
▁př 1979
υτ 1980
di 1981
▁ke 1982
▁Es 1983
▁де 1984
eren 1985
▁ich 1986
isk 1987
ille 1988
▁mar 1989
▁gr 1990
αν 1991
▁ent 1992
εν 1993
ice 1994
tion 1995
▁į 1996
ūs 1997
ith 1998
▁pers 1999
λλ 2000
wo 2001
ās 2002
ene 2003
ono 2004
лу 2005
▁vy 2006
▁tre 2007
жа 2008
▁iš 2009
ky 2010
▁ро 2011
▁hu 2012
ante 2013
▁oli 2014
▁είναι 2015
▁uz 2016
▁jag 2017
τικ 2018
▁not 2019
▁Il 2020
▁И 2021
▁bet 2022
ment 2023
▁tag 2024
ike 2025
ane 2026
▁ότι 2027
▁pra 2028
ār 2029
ві 2030
alt 2031
▁mis 2032
ied 2033
las 2034
ose 2035
var 2036
▁ot 2037
mu 2038
▁ty 2039
ori 2040
▁που 2041
ban 2042
▁это 2043
led 2044
▁cont 2045
▁è 2046
▁das 2047
ani 2048
▁са 2049
äm 2050
па 2051
▁бы 2052
én 2053
ink 2054
▁us 2055
ive 2056
со 2057
▁από 2058
ül 2059
ön 2060
len 2061
▁imp 2062
▁Det 2063
▁este 2064
▁mod 2065
itu 2066
▁los 2067
tiv 2068
▁την 2069
cia 2070
ού 2071
este 2072
itt 2073
▁зна 2074
cht 2075
ет 2076
uk 2077
▁kur 2078
▁но 2079
▁gen 2080
▁ze 2081
oj 2082
▁ut 2083
inu 2084
ря 2085
ione 2086
▁ak 2087
ese 2088
ного 2089
▁ре 2090
▁Q 2091
▁till 2092
we 2093
▁kr 2094
enti 2095
iek 2096
▁pi 2097
▁że 2098
▁br 2099
▁sch 2100
ger 2101
bre 2102
▁dan 2103
▁han 2104
▁hab 2105
icht 2106
▁see 2107
τά 2108
zn 2109
▁раз 2110
eme 2111
br 2112
yn 2113
▁tas 2114
▁fa 2115
▁це 2116
▁Le 2117
▁pat 2118
▁Ch 2119
ino 2120
▁have 2121
▁χ 2122
ken 2123
entru 2124
▁så 2125
пи 2126
▁raz 2127
up 2128
chen 2129
ity 2130
▁wir 2131
▁pour 2132
▁No 2133
▁tik 2134
vat 2135
рі 2136
▁pal 2137
ουν 2138
▁are 2139
▁St 2140
▁ва 2141
ρά 2142
▁fo 2143
▁sta 2144
▁со 2145
▁ju 2146
ту 2147
▁bil 2148
▁inte 2149
še 2150
▁with 2151
ema 2152
isi 2153
▁Th 2154
ater 2155
▁jeg 2156
▁sl 2157
ux 2158
▁nek 2159
les 2160
▁bo 2161
▁ten 2162
▁συ 2163
▁võ 2164
imo 2165
▁uh 2166
či 2167
▁ga 2168
▁ste 2169
άν 2170
▁Я 2171
ick 2172
▁her 2173
▁care 2174
man 2175
äh 2176
▁go 2177
▁mai 2178
nu 2179
▁wa 2180
tt 2181
▁А 2182
сть 2183
▁zijn 2184
ely 2185
ін 2186
unk 2187
▁вы 2188
▁sav 2189
▁js 2190
▁fi 2191
ert 2192
uld 2193
▁ved 2194
▁επ 2195
ši 2196
pi 2197
▁vid 2198
▁An 2199
inen 2200
пе 2201
▁La 2202
ari 2203
amente 2204
sen 2205
pre 2206
▁як 2207
ür 2208
zz 2209
wn 2210
ės 2211
▁non 2212
▁dom 2213
▁tro 2214
emm 2215
ém 2216
▁nad 2217
ισ 2218
ige 2219
▁reg 2220
ää 2221
amos 2222
ги 2223
▁τα 2224
ía 2225
▁pentru 2226
ться 2227
ero 2228
het 2229
▁съ 2230
▁η 2231
ολ 2232
tig 2233
▁kol 2234
bb 2235
ρε 2236
▁Sie 2237
▁sie 2238
vis 2239
▁q 2240
val 2241
▁tur 2242
ue 2243
▁β 2244
▁las 2245
ott 2246
▁mil 2247
ins 2248
▁aby 2249
▁ф 2250
ρό 2251
▁ind 2252
▁str 2253
▁tam 2254
▁over 2255
ām 2256
enn 2257
▁comp 2258
▁this 2259
by 2260
▁Α 2261
▁dr 2262
лі 2263
ně 2264
uma 2265
zen 2266
eta 2267
▁nä 2268
▁бе 2269
▁ikke 2270
urs 2271
esta 2272
▁Vi 2273
▁hän 2274
▁une 2275
esto 2276
▁може 2277
van 2278
ums 2279
oc 2280
mente 2281
āk 2282
▁nos 2283
▁että 2284
pt 2285
▁jak 2286
▁ни 2287
▁aut 2288
af 2289
▁mor 2290
▁στο 2291
ena 2292
▁kien 2293
por 2294
pu 2295
fic 2296
σε 2297
ого 2298
ται 2299
ха 2300
joni 2301
▁αυτ 2302
▁vien 2303
ці 2304
▁как 2305
▁φ 2306
oli 2307
cie 2308
alo 2309
ør 2310
ova 2311
▁хо 2312
▁Na 2313
▁dru 2314
ét 2315
▁probl 2316
▁svo 2317
▁voor 2318
eld 2319
jem 2320
▁pri 2321
eni 2322
▁ud 2323
▁jest 2324
▁He 2325
ament 2326
une 2327
▁als 2328
▁ti 2329
ase 2330
▁cons 2331
▁това 2332
▁все 2333
▁wer 2334
kr 2335
usi 2336
ende 2337
▁naj 2338
▁como 2339
fer 2340
▁vous 2341
ção 2342
ере 2343
asta 2344
ła 2345
ži 2346
▁ö 2347
ры 2348
▁war 2349
▁ktor 2350
▁sm 2351
▁uma 2352
пра 2353
▁kl 2354
▁αν 2355
▁vil 2356
ole 2357
ταν 2358
▁roz 2359
▁bar 2360
ån 2361
aks 2362
▁Б 2363
lich 2364
hn 2365
▁Ar 2366
▁yra 2367
▁sur 2368
▁vel 2369
мен 2370
tó 2371
vel 2372
vor 2373
▁von 2374
σει 2375
μέ 2376
▁sin 2377
lj 2378
uje 2379
ella 2380
sta 2381
▁Qu 2382
ción 2383
▁θα 2384
▁não 2385
▁pot 2386
▁bud 2387
gan 2388
▁nas 2389
nosti 2390
ιο 2391
ps 2392
isti 2393
ome 2394
▁ή 2395
са 2396
▁Ε 2397
▁zn 2398
▁То 2399
▁niet 2400
▁x 2401
▁vr 2402
ään 2403
▁vor 2404
▁Pr 2405
ure 2406
ým 2407
ido 2408
▁Euro 2409
ors 2410
▁mais 2411
iden 2412
ба 2413
ser 2414
▁aj 2415
gr 2416
wi 2417
▁qui 2418
pro 2419
ner 2420
▁had 2421
▁wy 2422
▁fl 2423
āt 2424
iau 2425
ona 2426
ec 2427
ят 2428
ρί 2429
▁pom 2430
▁kar 2431
▁sc 2432
form 2433
kom 2434
▁σε 2435
▁leg 2436
let 2437
▁ca 2438
ann 2439
▁kor 2440
▁fu 2441
▁div 2442
▁ako 2443
іль 2444
▁El 2445
λο 2446
▁dass 2447
▁inc 2448
▁mus 2449
utta 2450
▁eu 2451
iex 2452
jet 2453
▁З 2454
▁dans 2455
▁для 2456
▁wie 2457
▁προ 2458
▁dal 2459
νε 2460
▁Š 2461
hom 2462
▁пра 2463
▁бо 2464
▁gl 2465
▁πε 2466
▁Ta 2467
▁від 2468
cer 2469
bil 2470
pos 2471
age 2472
▁pla 2473
ší 2474
par 2475
ву 2476
▁bl 2477
▁ста 2478
▁kā 2479
▁па 2480
▁pred 2481
▁era 2482
ket 2483
λα 2484
▁tar 2485
▁tud 2486
▁sim 2487
▁bes 2488
▁ave 2489
▁bū 2490
▁nicht 2491
щи 2492
▁sen 2493
ουμε 2494
▁któ 2495
▁kai 2496
▁gal 2497
our 2498
▁υ 2499
că 2500
ól 2501
▁ме 2502
nik 2503
▁Τ 2504
▁We 2505
cion 2506
ong 2507
▁dos 2508
▁nog 2509
ove 2510
▁так 2511
▁Κ 2512
ær 2513
ker 2514
▁πα 2515
min 2516
▁Mar 2517
▁ду 2518
▁kö 2519
λε 2520
ον 2521
vad 2522
▁Par 2523
▁ли 2524
iko 2525
▁ст 2526
tim 2527
hed 2528
itä 2529
▁mal 2530
elo 2531
▁auf 2532
ска 2533
▁δεν 2534
ll 2535
ών 2536
лен 2537
▁Da 2538
ette 2539
▁ще 2540
▁nous 2541
▁сво 2542
▁gro 2543
▁más 2544
▁don 2545
▁mas 2546
lic 2547
onom 2548
▁mig 2549
zd 2550
ски 2551
▁ча 2552
inn 2553
ρέ 2554
зо 2555
▁kui 2556
▁ole 2557
▁his 2558
ēr 2559
▁sus 2560
ty 2561
īb 2562
ща 2563
▁ji 2564
▁cer 2565
▁fel 2566
▁up 2567
asi 2568
kel 2569
cy 2570
▁Tak 2571
▁And 2572
▁voc 2573
▁στη 2574
ras 2575
▁alle 2576
ák 2577
▁už 2578
▁ένα 2579
ág 2580
▁vers 2581
rad 2582
▁vide 2583
▁ве 2584
▁can 2585
▁heb 2586
ēj 2587
ved 2588
▁ci 2589
imi 2590
▁trans 2591
▁car 2592
▁inv 2593
▁tagħ 2594
šan 2595
ern 2596
▁cs 2597
сно 2598
▁kter 2599
▁pres 2600
war 2601
sp 2602
▁você 2603
vet 2604
▁vä 2605
▁ih 2606
▁dob 2607
nak 2608
ola 2609
▁tom 2610
▁mag 2611
ēs 2612
▁tod 2613
▁produ 2614
▁Com 2615
its 2616
▁Be 2617
fter 2618
ovan 2619
▁hat 2620
nost 2621
мі 2622
▁mer 2623
▁ah 2624
▁hm 2625
ach 2626
▁It 2627
iai 2628
él 2629
hen 2630
▁app 2631
št 2632
oz 2633
▁mind 2634
kun 2635
ści 2636
▁tiegħ 2637
cij 2638
oč 2639
ativ 2640
ний 2641
ün 2642
gel 2643
▁prin 2644
▁person 2645
▁Pro 2646
ło 2647
ân 2648
▁pie 2649
▁Σ 2650
▁nov 2651
▁ali 2652
ats 2653
ava 2654
ble 2655
▁prog 2656
ii 2657
▁ou 2658
це 2659
ак 2660
▁dire 2661
ss 2662
▁buvo 2663
▁ag 2664
κε 2665
áz 2666
бе 2667
šk 2668
yst 2669
▁τι 2670
▁tä 2671
almente 2672
▁mog 2673
▁τον 2674
▁х 2675
nej 2676
▁dz 2677
ulle 2678
▁rec 2679
▁Te 2680
agy 2681
my 2682
▁Er 2683
asti 2684
▁По 2685
aliz 2686
hu 2687
▁nes 2688
ità 2689
▁ć 2690
āj 2691
eks 2692
жно 2693
oti 2694
ните 2695
rem 2696
▁dec 2697
ados 2698
▁out 2699
▁sol 2700
▁Jo 2701
▁id 2702
ars 2703
iku 2704
▁Ale 2705
▁vai 2706
σι 2707
nes 2708
▁Sch 2709
▁Me 2710
▁ба 2711
▁мен 2712
▁кото 2713
▁пере 2714
▁Е 2715
ros 2716
τή 2717
▁dig 2718
▁dé 2719
ingap 2720
су 2721
ingen 2722
ight 2723
olog 2724
▁So 2725
▁come 2726
льно 2727
▁plus 2728
ство 2729
essa 2730
fe 2731
▁cor 2732
λη 2733
jer 2734
▁will 2735
▁μα 2736
hat 2737
ire 2738
▁под 2739
μο 2740
▁mon 2741
▁aan 2742
лед 2743
ша 2744
▁έχ 2745
ор 2746
▁eller 2747
ilo 2748
ско 2749
ally 2750
emos 2751
▁gu 2752
▁У 2753
▁wi 2754
▁zo 2755
oni 2756
iste 2757
▁oma 2758
▁poz 2759
▁лю 2760
▁they 2761
▁għal 2762
enta 2763
▁eine 2764
νη 2765
▁bija 2766
чно 2767
ysl 2768
cess 2769
▁let 2770
gl 2771
ěl 2772
▁ny 2773
ah 2774
▁Μ 2775
ijo 2776
ald 2777
▁has 2778
akt 2779
▁fe 2780
▁pop 2781
▁cre 2782
▁Π 2783
гу 2784
ný 2785
ura 2786
▁tā 2787
▁zd 2788
ande 2789
▁mat 2790
▁Re 2791
▁На 2792
▁star 2793
▁cam 2794
ull 2795
cs 2796
anti 2797
▁nap 2798
▁ed 2799
ého 2800
▁Ich 2801
ând 2802
ív 2803
ank 2804
czy 2805
▁sab 2806
▁sich 2807
ργ 2808
сте 2809
▁što 2810
ijiet 2811
ρω 2812
▁from 2813
▁biex 2814
vol 2815
▁ur 2816
▁lah 2817
▁Ik 2818
▁pon 2819
зу 2820
▁nat 2821
als 2822
ем 2823
▁maj 2824
▁one 2825
elen 2826
anto 2827
▁kap 2828
▁kä 2829
ння 2830
old 2831
▁gy 2832
▁mill 2833
▁nj 2834
ád 2835
▁ru 2836
yk 2837
ekt 2838
▁λ 2839
▁Oh 2840
▁int 2841
lim 2842
▁wo 2843
▁naš 2844
▁cz 2845
▁nor 2846
▁gra 2847
▁zap 2848
▁pou 2849
▁nav 2850
▁esta 2851
▁én 2852
▁für 2853
▁Men 2854
ams 2855
▁κά 2856
▁bli 2857
▁Ο 2858
ties 2859
▁sel 2860
▁przy 2861
fr 2862
ăr 2863
▁ger 2864
▁sag 2865
λλά 2866
▁but 2867
ły 2868
åg 2869
▁polit 2870
▁mom 2871
▁пред 2872
ρη 2873
▁vir 2874
ėl 2875
▁son 2876
▁pak 2877
▁prim 2878
▁aus 2879
▁fra 2880
вер 2881
▁би 2882
▁й 2883
▁kont 2884
зна 2885
▁дру 2886
una 2887
idad 2888
hd 2889
▁dit 2890
anje 2891
▁ну 2892
▁kell 2893
▁vý 2894
ří 2895
▁Jag 2896
▁dol 2897
net 2898
▁Po 2899
▁col 2900
anie 2901
▁μια 2902
now 2903
▁hal 2904
ork 2905
▁ide 2906
▁sal 2907
ico 2908
▁ά 2909
iment 2910
▁pad 2911
ev 2912
κα 2913
tic 2914
▁Tai 2915
▁god 2916
land 2917
▁bol 2918
AA 2919
▁beg 2920
oma 2921
endo 2922
ení 2923
osa 2924
té 2925
ings 2926
mis 2927
▁ok 2928
oka 2929
ді 2930
ance 2931
▁мы 2932
пу 2933
▁fac 2934
▁also 2935
▁spe 2936
▁αυτό 2937
▁import 2938
▁Nu 2939
στε 2940
▁или 2941
▁Jeg 2942
hod 2943
▁cas 2944
mit 2945
▁prof 2946
▁sono 2947
▁ker 2948
▁cap 2949
ça 2950
osta 2951
▁oc 2952
гра 2953
ului 2954
▁Ко 2955
▁fost 2956
▁Ha 2957
лко 2958
lik 2959
ted 2960
▁part 2961
▁está 2962
vr 2963
▁É 2964
вати 2965
▁kõ 2966
▁има 2967
▁ő 2968
▁ie 2969
kö 2970
ld 2971
eri 2972
vä 2973
▁kam 2974
▁просто 2975
iten 2976
▁rel 2977
▁Р 2978
zet 2979
nih 2980
yd 2981
wie 2982
▁mes 2983
▁huwa 2984
▁volt 2985
▁Is 2986
▁cel 2987
lad 2988
▁bez 2989
▁lai 2990
ēl 2991
emo 2992
▁tö 2993
ъл 2994
ná 2995
ād 2996
ret 2997
els 2998
esz 2999
udz 3000
▁diff 3001
▁ш 3002
▁Singap 3003
ény 3004
▁dok 3005
bar 3006
ći 3007
igen 3008
ition 3009
▁ez 3010
hing 3011
jud 3012
▁ov 3013
▁δια 3014
▁lab 3015
ores 3016
сі 3017
жу 3018
▁μπο 3019
▁dur 3020
zu 3021
rov 3022
▁жи 3023
▁like 3024
isen 3025
▁inst 3026
▁word 3027
▁neg 3028
▁Het 3029
▁jsem 3030
ът 3031
ρχ 3032
▁seda 3033
lev 3034
cial 3035
▁Г 3036
ijk 3037
▁tut 3038
elf 3039
▁alla 3040
ată 3041
ania 3042
cent 3043
▁ї 3044
▁Die 3045
▁ξ 3046
ната 3047
ēt 3048
▁Но 3049
▁väl 3050
gs 3051
дно 3052
▁under 3053
▁μέ 3054
▁nar 3055
σα 3056
бы 3057
īt 3058
▁minn 3059
▁end 3060
▁zá 3061
mas 3062
su 3063
issa 3064
бу 3065
▁ġ 3066
▁ně 3067
pen 3068
▁Č 3069
▁των 3070
▁parte 3071
fi 3072
eng 3073
ajo 3074
▁še 3075
▁cent 3076
eto 3077
▁Ir 3078
ют 3079
elj 3080
mes 3081
▁taip 3082
▁kot 3083
жда 3084
ιά 3085
гда 3086
umu 3087
▁vš 3088
če 3089
iej 3090
ument 3091
ns 3092
▁като 3093
▁fuq 3094
▁jako 3095
afna 3096
ych 3097
ider 3098
▁ele 3099
▁tim 3100
ете 3101
▁є 3102
▁мі 3103
ρώ 3104
πε 3105
θε 3106
▁ned 3107
▁živ 3108
cho 3109
чен 3110
eno 3111
▁nep 3112
▁tako 3113
oks 3114
ew 3115
osti 3116
про 3117
▁sú 3118
▁ré 3119
об 3120
isu 3121
ish 3122
iks 3123
▁ett 3124
ack 3125
tak 3126
▁mõ 3127
ute 3128
ovor 3129
тел 3130
▁prze 3131
▁ин 3132
▁ná 3133
▁ass 3134
ány 3135
▁sind 3136
гато 3137
▁Man 3138
get 3139
nek 3140
áll 3141
▁кон 3142
каза 3143
▁má 3144
ħal 3145
τό 3146
uv 3147
iva 3148
ца 3149
ité 3150
taa 3151
▁kes 3152
τέ 3153
▁dra 3154
▁smo 3155
▁много 3156
emp 3157
▁pār 3158
szy 3159
uni 3160
▁Ц 3161
esso 3162
▁As 3163
▁know 3164
▁qed 3165
▁kommer 3166
aju 3167
▁cr 3168
ġġ 3169
дин 3170
▁nam 3171
▁Du 3172
▁lui 3173
lus 3174
cha 3175
▁ont 3176
▁alg 3177
isten 3178
▁vagy 3179
▁did 3180
▁vl 3181
ua 3182
ēc 3183
▁teg 3184
▁kat 3185
ère 3186
ton 3187
▁sobre 3188
owa 3189
▁Ș 3190
▁πολ 3191
ude 3192
▁lahko 3193
bli 3194
nych 3195
▁sec 3196
ті 3197
out 3198
▁fam 3199
▁Han 3200
▁tun 3201
▁mol 3202
▁mul 3203
ře 3204
kov 3205
▁program 3206
▁въ 3207
iec 3208
▁Så 3209
▁εν 3210
▁mak 3211
met 3212
pres 3213
▁Et 3214
▁Mo 3215
ée 3216
▁må 3217
zer 3218
▁mož 3219
port 3220
ść 3221
▁prav 3222
▁continu 3223
▁ти 3224
▁tek 3225
сли 3226
▁pen 3227
▁pok 3228
▁ba 3229
▁στην 3230
▁seg 3231
▁uit 3232
vid 3233
▁più 3234
▁bij 3235
▁μου 3236
pad 3237
▁tot 3238
pon 3239
▁роз 3240
if 3241
▁alt 3242
▁there 3243
▁mūs 3244
▁Ez 3245
del 3246
▁gran 3247
▁problem 3248
▁isso 3249
▁della 3250
des 3251
ства 3252
▁ret 3253
▁dies 3254
▁Э 3255
σω 3256
ék 3257
▁finan 3258
igi 3259
íte 3260
ša 3261
▁sil 3262
μά 3263
iał 3264
▁ħafna 3265
vu 3266
lij 3267
ira 3268
aten 3269
ност 3270
▁kuri 3271
▁¿ 3272
vin 3273
vá 3274
▁hij 3275
▁απο 3276
▁stud 3277
▁ess 3278
▁See 3279
orn 3280
cis 3281
ето 3282
▁gre 3283
▁sunt 3284
ös 3285
▁haben 3286
▁ska 3287
rod 3288
▁Не 3289
ren 3290
▁fol 3291
idu 3292
assa 3293
▁Έ 3294
▁hy 3295
▁oh 3296
ět 3297
▁jūs 3298
πα 3299
tes 3300
▁kuid 3301
ations 3302
▁Ver 3303
mel 3304
ets 3305
ões 3306
▁sho 3307
▁rad 3308
forma 3309
▁περι 3310
▁Х 3311
▁hav 3312
ята 3313
oro 3314
▁far 3315
ič 3316
íc 3317
ligt 3318
ран 3319
aka 3320
▁num 3321
жен 3322
lar 3323
▁ris 3324
emb 3325
▁Η 3326
▁hand 3327
▁væ 3328
▁Og 3329
▁Am 3330
hl 3331
▁him 3332
ίν 3333
▁put 3334
ony 3335
▁Î 3336
uks 3337
▁organ 3338
▁gan 3339
▁οι 3340
▁poč 3341
ub 3342
вы 3343
fin 3344
kol 3345
них 3346
wer 3347
▁upp 3348
▁Im 3349
yti 3350
xt 3351
ild 3352
▁sua 3353
cip 3354
entes 3355
▁pap 3356
ρεί 3357
ходи 3358
▁sku 3359
▁what 3360
▁mot 3361
▁hel 3362
inā 3363
ämä 3364
▁lä 3365
τί 3366
кий 3367
sto 3368
▁parti 3369
uto 3370
ють 3371
▁form 3372
▁jos 3373
▁ня 3374
iga 3375
pet 3376
▁ost 3377
▁spr 3378
▁нас 3379
▁pun 3380
▁net 3381
yb 3382
ные 3383
ís 3384
▁ig 3385
▁Tr 3386
▁efter 3387
▁спо 3388
▁ai 3389
зва 3390
▁Si 3391
kin 3392
ová 3393
▁naar 3394
▁ér 3395
igt 3396
▁вре 3397
▁bel 3398
usta 3399
▁vu 3400
шо 3401
ėjo 3402
ín 3403
▁Л 3404
σο 3405
▁kaip 3406
ils 3407
▁dost 3408
avo 3409
▁dv 3410
▁här 3411
▁plan 3412
▁которы 3413
спо 3414
▁kos 3415
▁hun 3416
▁prost 3417
▁рабо 3418
εια 3419
irm 3420
ėj 3421
▁sh 3422
oi 3423
ikt 3424
▁Да 3425
oda 3426
вя 3427
ioni 3428
ula 3429
aire 3430
▁mēs 3431
ты 3432
▁он 3433
▁qual 3434
azz 3435
ivers 3436
tek 3437
▁bed 3438
▁more 3439
üü 3440
pan 3441
дна 3442
eb 3443
raz 3444
▁għand 3445
▁sub 3446
uss 3447
yr 3448
ръ 3449
▁kra 3450
▁situ 3451
▁wat 3452
▁daug 3453
tait 3454
▁pag 3455
onn 3456
▁pä 3457
ilor 3458
leg 3459
▁сто 3460
▁ήταν 3461
ито 3462
▁werden 3463
nem 3464
▁avec 3465
koll 3466
illa 3467
ības 3468
▁maar 3469
hm 3470
ική 3471
erg 3472
οι 3473
▁Ч 3474
▁vad 3475
кти 3476
▁ins 3477
▁koji 3478
вно 3479
▁ști 3480
вори 3481
▁він 3482
iro 3483
pli 3484
▁І 3485
▁hebben 3486
▁są 3487
▁су 3488
lan 3489
rac 3490
▁За 3491
▁liv 3492
ume 3493
▁akt 3494
▁jis 3495
▁sme 3496
eten 3497
ünk 3498
▁if 3499
▁Bet 3500
▁кра 3501
bol 3502
ден 3503
bor 3504
▁stran 3505
▁just 3506
raw 3507
ident 3508
▁Kom 3509
▁någ 3510
alla 3511
▁tid 3512
▁dist 3513
▁Och 3514
iver 3515
▁sell 3516
jn 3517
▁ди 3518
able 3519
▁pass 3520
rie 3521
▁já 3522
esse 3523
miss 3524
▁kok 3525
▁Den 3526
γμα 3527
▁Viņ 3528
вен 3529
vē 3530
eti 3531
▁jej 3532
чу 3533
▁hist 3534
▁ri 3535
▁savo 3536
▁които 3537
▁which 3538
ep 3539
mon 3540
iter 3541
▁huma 3542
▁veľ 3543
▁were 3544
▁Ν 3545
ovi 3546
area 3547
oss 3548
vez 3549
hal 3550
▁New 3551
▁σα 3552
▁At 3553
▁You 3554
▁priv 3555
ță 3556
θη 3557
▁під 3558
▁така 3559
ész 3560
ей 3561
yl 3562
sti 3563
▁õ 3564
ép 3565
isa 3566
▁ін 3567
▁loc 3568
▁enc 3569
pod 3570
ных 3571
▁jot 3572
osi 3573
▁Co 3574
▁dir 3575
▁čas 3576
▁would 3577
yslím 3578
▁му 3579
λά 3580
▁our 3581
▁post 3582
πά 3583
str 3584
▁tap 3585
ès 3586
ätt 3587
▁nagy 3588
izz 3589
▁On 3590
▁pens 3591
čin 3592
elu 3593
▁stor 3594
▁questo 3595
lat 3596
вля 3597
пре 3598
▁uns 3599
▁най 3600
▁bien 3601
▁who 3602
▁sein 3603
▁szer 3604
ady 3605
▁Ali 3606
▁Δ 3607
ρού 3608
▁беше 3609
gal 3610
▁nej 3611
fa 3612
йте 3613
▁gener 3614
▁siis 3615
▁about 3616
tain 3617
šu 3618
▁пос 3619
▁буде 3620
тя 3621
ük 3622
▁gar 3623
▁via 3624
īdz 3625
chod 3626
▁εκ 3627
▁ле 3628
▁inf 3629
▁bilo 3630
▁vet 3631
čno 3632
rol 3633
vir 3634
χε 3635
ous 3636
ales 3637
ât 3638
gt 3639
ulla 3640
mar 3641
▁sak 3642
▁nost 3643
▁će 3644
▁ben 3645
amento 3646
oval 3647
▁len 3648
▁Și 3649
▁sau 3650
▁Und 3651
▁ljud 3652
▁kal 3653
▁čo 3654
▁quando 3655
istä 3656
▁gru 3657
▁πο 3658
lä 3659
óó 3660
▁επι 3661
▁dev 3662
▁Um 3663
πει 3664
uden 3665
▁selle 3666
▁most 3667
▁svoj 3668
▁kön 3669
cep 3670
jed 3671
ary 3672
▁kako 3673
lem 3674
▁prom 3675
▁чи 3676
ator 3677
τικό 3678
▁your 3679
▁tri 3680
▁щоб 3681
▁hija 3682
ają 3683
anja 3684
▁sn 3685
▁joka 3686
igh 3687
▁But 3688
ją 3689
urt 3690
вите 3691
▁vez 3692
ds 3693
▁zv 3694
și 3695
λή 3696
bra 3697
▁xi 3698
ωω 3699
seb 3700
▁tõ 3701
alis 3702
▁prz 3703
ій 3704
ced 3705
▁пла 3706
isto 3707
▁bom 3708
▁чтобы 3709
pri 3710
▁door 3711
▁prie 3712
▁ку 3713
▁moż 3714
ċċ 3715
▁дума 3716
▁Ze 3717
▁kdy 3718
▁Ho 3719
▁film 3720
▁arī 3721
tra 3722
nud 3723
indi 3724
▁eff 3725
▁samo 3726
▁стра 3727
kal 3728
▁Takže 3729
ph 3730
ții 3731
▁vz 3732
▁tele 3733
any 3734
imas 3735
ване 3736
tų 3737
λέ 3738
κό 3739
кла 3740
ché 3741
при 3742
mod 3743
dr 3744
▁sed 3745
ăm 3746
δο 3747
▁għall 3748
▁taj 3749
ίζ 3750
▁å 3751
▁dag 3752
inti 3753
▁lid 3754
▁their 3755
▁zač 3756
waż 3757
dzie 3758
itet 3759
iu 3760
ós 3761
ється 3762
▁nik 3763
▁dov 3764
▁need 3765
▁ä 3766
▁né 3767
▁tan 3768
▁Nie 3769
φο 3770
lio 3771
uste 3772
ovat 3773
tal 3774
ple 3775
ный 3776
▁Fran 3777
▁esc 3778
iska 3779
▁waar 3780
ix 3781
нь 3782
▁Br 3783
νέ 3784
▁EU 3785
▁hát 3786
ție 3787
nom 3788
ért 3789
▁dej 3790
он 3791
▁video 3792
▁ком 3793
zione 3794
sten 3795
▁fir 3796
los 3797
▁mě 3798
▁faz 3799
▁Ge 3800
▁acc 3801
дя 3802
▁solo 3803
avad 3804
▁sont 3805
▁În 3806
ħħ 3807
ότε 3808
▁aqu 3809
ovo 3810
▁ace 3811
ral 3812
uta 3813
āju 3814
ним 3815
aja 3816
arte 3817
ska 3818
▁πολύ 3819
hekk 3820
ől 3821
▁Це 3822
▁hom 3823
▁sor 3824
▁mond 3825
▁skulle 3826
▁Min 3827
▁его 3828
▁år 3829
urn 3830
▁ανα 3831
ello 3832
▁ту 3833
sch 3834
ват 3835
vil 3836
▁ś 3837
▁Pa 3838
▁beh 3839
zą 3840
▁же 3841
bie 3842
īj 3843
▁kans 3844
iji 3845
▁them 3846
▁тако 3847
сту 3848
aga 3849
пер 3850
ants 3851
▁Sa 3852
▁ook 3853
tid 3854
▁Hän 3855
▁asi 3856
esch 3857
▁For 3858
ποι 3859
▁über 3860
▁inform 3861
▁Az 3862
▁само 3863
▁Est 3864
▁hier 3865
▁set 3866
kar 3867
▁zna 3868
iju 3869
▁Der 3870
vien 3871
▁nii 3872
γο 3873
▁ven 3874
ρή 3875
▁cin 3876
▁Γ 3877
esp 3878
кра 3879
vent 3880
▁bra 3881
iel 3882
▁hemm 3883
▁two 3884
ungen 3885
être 3886
▁ovat 3887
▁Bo 3888
ode 3889
▁fun 3890
бва 3891
▁aš 3892
bal 3893
чки 3894
▁Nem 3895
▁pov 3896
anda 3897
ικά 3898
▁niin 3899
▁viņš 3900
mal 3901
over 3902
▁εξ 3903
▁Та 3904
τικά 3905
cut 3906
▁gi 3907
ked 3908
▁Mas 3909
čen 3910
▁його 3911
ется 3912
ez 3913
vit 3914
▁när 3915
ód 3916
▁mir 3917
ction 3918
ily 3919
ību 3920
uda 3921
▁super 3922
ea 3923
ivo 3924
▁main 3925
▁вони 3926
ree 3927
▁tego 3928
ъде 3929
▁she 3930
рябва 3931
▁αλλά 3932
▁chi 3933
▁muito 3934
ūt 3935
▁jie 3936
▁pří 3937
▁kv 3938
atud 3939
▁pet 3940
amis 3941
▁wię 3942
odu 3943
▁коли 3944
lin 3945
▁hi 3946
▁This 3947
▁mida 3948
▁vend 3949
ques 3950
▁aff 3951
▁они 3952
▁dwar 3953
ște 3954
agi 3955
łem 3956
ester 3957
tai 3958
hy 3959
▁deze 3960
omen 3961
▁tul 3962
▁off 3963
▁sou 3964
▁κάν 3965
ence 3966
▁vain 3967
▁disse 3968
rar 3969
▁več 3970
ister 3971
ljen 3972
nym 3973
ular 3974
▁vra 3975
nog 3976
▁luc 3977
▁nel 3978
itate 3979
▁dou 3980
клю 3981
▁bas 3982
taj 3983
íme 3984
▁три 3985
▁Ah 3986
▁pog 3987
uw 3988
erd 3989
▁Это 3990
urde 3991
▁zm 3992
▁доб 3993
▁amely 3994
zzjoni 3995
æn 3996
▁ļ 3997
ekk 3998
hte 3999
▁blev 4000
▁Dar 4001
▁köz 4002
ża 4003
▁ord 4004
▁hac 4005
▁Και 4006
вър 4007
▁á 4008
kon 4009
▁või 4010
▁чу 4011
emme 4012
▁jeho 4013
ции 4014
вали 4015
▁Con 4016
ēja 4017
▁potre 4018
▁euro 4019
uti 4020
ades 4021
ред 4022
▁från 4023
▁які 4024
▁което 4025
nic 4026
▁fat 4027
три 4028
kas 4029
▁vast 4030
▁cum 4031
▁være 4032
▁bro 4033
reg 4034
čiau 4035
áci 4036
oug 4037
oto 4038
▁quel 4039
▁ye 4040
ке 4041
lie 4042
ασ 4043
ische 4044
ski 4045
ign 4046
nim 4047
ivat 4048
▁Так 4049
▁pan 4050
▁zem 4051
odo 4052
lut 4053
arb 4054
ór 4055
ents 4056
▁Por 4057
gli 4058
kus 4059
eket 4060
esi 4061
▁kaž 4062
▁cil 4063
▁zas 4064
δε 4065
▁when 4066
▁kind 4067
▁ζ 4068
▁Non 4069
ży 4070
ções 4071
tif 4072
cause 4073
▁tym 4074
zo 4075
stru 4076
▁util 4077
▁mô 4078
idade 4079
▁Per 4080
ικό 4081
▁einen 4082
śli 4083
uns 4084
▁stvar 4085
▁оста 4086
▁redu 4087
▁tout 4088
мер 4089
▁ek 4090
▁get 4091
▁Amer 4092
▁strat 4093
ция 4094
▁tien 4095
dan 4096
abil 4097
▁time 4098
▁bre 4099
▁bila 4100
▁neb 4101
▁Sp 4102
▁które 4103
▁ville 4104
▁Su 4105
▁rend 4106
▁nach 4107
ital 4108
ар 4109
▁ні 4110
▁kul 4111
που 4112
▁aber 4113
▁tw 4114
▁comme 4115
▁ktoré 4116
▁sy 4117
τική 4118
▁cos 4119
▁слу 4120
▁bus 4121
▁nim 4122
▁Ž 4123
ellen 4124
▁два 4125
▁mutta 4126
uten 4127
▁prob 4128
▁ec 4129
▁Tas 4130
▁zin 4131
eft 4132
▁kuin 4133
lag 4134
▁koh 4135
ajú 4136
▁Ми 4137
она 4138
πω 4139
rij 4140
utt 4141
▁jew 4142
har 4143
vän 4144
▁serv 4145
▁sist 4146
jek 4147
ього 4148
▁Europe 4149
▁dro 4150
▁того 4151
▁sä 4152
obb 4153
▁Те 4154
itel 4155
cio 4156
▁fog 4157
тому 4158
μη 4159
tää 4160
▁slu 4161
ated 4162
cket 4163
▁sti 4164
th 4165
ions 4166
ople 4167
▁але 4168
kaz 4169
▁zak 4170
▁Das 4171
isse 4172
inter 4173
▁prac 4174
▁hon 4175
▁пер 4176
єте 4177
▁mid 4178
▁auch 4179
▁entre 4180
▁Mis 4181
uf 4182
imin 4183
▁Ro 4184
enie 4185
▁lin 4186
▁vie 4187
ví 4188
ēm 4189
▁vēl 4190
▁mö 4191
amas 4192
agħ 4193
▁some 4194
▁Hu 4195
▁tiet 4196
▁mens 4197
▁oder 4198
▁skal 4199
▁lang 4200
ită 4201
śmy 4202
šč 4203
▁sar 4204
ais 4205
olu 4206
▁voi 4207
żda 4208
▁Do 4209
itar 4210
iaus 4211
▁compl 4212
вле 4213
pä 4214
▁hade 4215
▁pris 4216
▁ties 4217
ír 4218
▁zab 4219
erne 4220
▁kaik 4221
▁kao 4222
ké 4223
▁Har 4224
amen 4225
bru 4226
għu 4227
▁Or 4228
iny 4229
oga 4230
▁sek 4231
cher 4232
▁dot 4233
▁nev 4234
ną 4235
ribu 4236
II 4237
вать 4238
▁now 4239
▁tror 4240
▁keď 4241
azione 4242
▁wird 4243
▁kir 4244
ματα 4245
▁Това 4246
▁pil 4247
έρ 4248
▁sve 4249
▁moment 4250
νω 4251
umi 4252
okat 4253
▁lie 4254
ogra 4255
▁laik 4256
▁трябва 4257
inte 4258
▁kop 4259
▁тому 4260
▁tiegħu 4261
▁žel 4262
▁Ф 4263
adas 4264
▁pow 4265
▁без 4266
xx 4267
sim 4268
▁syst 4269
▁oper 4270
▁tiek 4271
▁todos 4272
kur 4273
▁foi 4274
▁real 4275
ves 4276
īgi 4277
▁mint 4278
кі 4279
iki 4280
će 4281
▁land 4282
īg 4283
tern 4284
amat 4285
▁Ad 4286
amme 4287
ūr 4288
▁wenn 4289
ник 4290
▁št 4291
▁been 4292
amb 4293
éd 4294
fel 4295
för 4296
τητα 4297
▁nom 4298
▁få 4299
cem 4300
▁dod 4301
▁jsou 4302
▁mel 4303
▁svoje 4304
▁princip 4305
ċi 4306
▁зро 4307
else 4308
▁jums 4309
▁kann 4310
▁X 4311
▁Ac 4312
kej 4313
▁face 4314
öt 4315
etti 4316
▁drž 4317
λι 4318
лько 4319
hi 4320
▁stat 4321
▁nou 4322
ця 4323
pec 4324
▁Les 4325
▁vre 4326
sak 4327
▁Gr 4328
▁tied 4329
▁tudi 4330
ób 4331
▁Em 4332
ában 4333
▁Ele 4334
▁Dan 4335
▁veel 4336
zie 4337
kār 4338
▁tad 4339
▁Pre 4340
▁asta 4341
хи 4342
amp 4343
emente 4344
lament 4345
▁tv 4346
rai 4347
▁ση 4348
▁bek 4349
▁viņa 4350
▁вси 4351
ári 4352
▁vores 4353
▁mult 4354
▁mie 4355
▁ras 4356
▁напра 4357
ných 4358
▁want 4359
jt 4360
▁kif 4361
▁été 4362
▁pero 4363
▁informa 4364
chi 4365
ġa 4366
▁dla 4367
ilt 4368
▁пот 4369
тися 4370
▁dei 4371
▁think 4372
▁Ind 4373
▁jekk 4374
gg 4375
рт 4376
ētu 4377
pport 4378
μβ 4379
vers 4380
▁ner 4381
▁bude 4382
μό 4383
▁prí 4384
τού 4385
car 4386
imą 4387
ogħ 4388
▁azt 4389
asz 4390
▁ul 4391
▁Ter 4392
▁kil 4393
antes 4394
▁Ex 4395
▁aktar 4396
hol 4397
▁ban 4398
tura 4399
med 4400
illä 4401
rá 4402
så 4403
▁Ab 4404
tit 4405
ling 4406
▁когда 4407
pat 4408
στ 4409
▁Ku 4410
ovať 4411
▁said 4412
▁боль 4413
isia 4414
jd 4415
enden 4416
▁ili 4417
ому 4418
▁meget 4419
▁essere 4420
▁Car 4421
▁Ak 4422
▁prod 4423
▁ээ 4424
voj 4425
▁people 4426
▁vara 4427
juk 4428
abb 4429
heid 4430
otre 4431
idän 4432
ener 4433
▁гра 4434
rž 4435
▁läh 4436
▁drug 4437
ром 4438
itiv 4439
▁sat 4440
δα 4441
▁spre 4442
▁ao 4443
▁bru 4444
ző 4445
▁hum 4446
ios 4447
▁jā 4448
chte 4449
▁fait 4450
▁bis 4451
▁John 4452
▁its 4453
▁exist 4454
▁сказа 4455
▁θέ 4456
▁ví 4457
ан 4458
θεί 4459
ellä 4460
▁port 4461
tions 4462
ču 4463
elijk 4464
▁které 4465
▁very 4466
▁arr 4467
chten 4468
▁alebo 4469
ake 4470
▁Her 4471
ines 4472
▁eks 4473
▁Ka 4474
žit 4475
▁ning 4476
▁stand 4477
▁вас 4478
▁aiz 4479
▁bardz 4480
▁plat 4481
γα 4482
▁sit 4483
▁lig 4484
вет 4485
▁Εί 4486
nia 4487
▁över 4488
of 4489
▁rez 4490
▁tol 4491
ța 4492
рен 4493
▁sul 4494
▁grande 4495
elli 4496
▁jih 4497
▁пи 4498
▁even 4499
▁best 4500
▁ans 4501
jav 4502
κο 4503
сля 4504
nou 4505
▁skr 4506
▁aș 4507
hren 4508
▁seu 4509
▁Lu 4510
▁тя 4511
illi 4512
ным 4513
▁hen 4514
▁bħal 4515
▁tagħna 4516
▁zb 4517
kor 4518
▁proces 4519
▁doll 4520
▁også 4521
▁ani 4522
▁mijn 4523
▁natur 4524
ijos 4525
iesz 4526
▁conf 4527
▁desc 4528
▁nebo 4529
žen 4530
▁Wir 4531
gar 4532
υτό 4533
tigt 4534
▁viss 4535
▁biz 4536
▁άλλ 4537
σουμε 4538
▁much 4539
▁ők 4540
▁наши 4541
ciones 4542
jar 4543
▁bara 4544
▁vě 4545
▁nuest 4546
ετε 4547
▁ever 4548
▁дол 4549
▁heeft 4550
▁then 4551
▁Ko 4552
▁pode 4553
▁stra 4554
▁hor 4555
ws 4556
▁zam 4557
фор 4558
▁mad 4559
▁lil 4560
▁všet 4561
ové 4562
▁ant 4563
▁полу 4564
ures 4565
ikor 4566
▁Eu 4567
▁fer 4568
yen 4569
öra 4570
▁ві 4571
▁hans 4572
itas 4573
▁forma 4574
▁kli 4575
▁když 4576
▁κατα 4577
▁vas 4578
mä 4579
pas 4580
adi 4581
ajā 4582
▁questi 4583
kaan 4584
▁gos 4585
ange 4586
ρέπει 4587
ück 4588
▁ус 4589
▁test 4590
▁üt 4591
▁gli 4592
add 4593
▁teh 4594
нии 4595
▁mums 4596
▁oly 4597
фи 4598
оо 4599
pēc 4600
▁suc 4601
▁bem 4602
▁saj 4603
▁кой 4604
jan 4605
▁nez 4606
▁ple 4607
▁stan 4608
ksi 4609
▁lug 4610
ск 4611
nego 4612
jas 4613
▁kül 4614
ster 4615
lov 4616
▁Мо 4617
han 4618
▁Ste 4619
рез 4620
aut 4621
▁tema 4622
chu 4623
ком 4624
¿¿ 4625
▁dre 4626
szyst 4627
▁because 4628
фе 4629
▁worden 4630
▁biti 4631
▁hod 4632
▁porque 4633
jal 4634
ėti 4635
▁Το 4636
▁Ent 4637
▁term 4638
mat 4639
▁dacă 4640
għa 4641
lep 4642
nis 4643
зво 4644
▁jer 4645
lam 4646
▁män 4647
бли 4648
▁hem 4649
▁vál 4650
▁eles 4651
▁into 4652
▁suur 4653
▁viņi 4654
▁επί 4655
biamo 4656
▁cal 4657
▁прави 4658
▁ø 4659
▁zat 4660
▁dobr 4661
jor 4662
▁njeg 4663
jonijiet 4664
▁bę 4665
▁bor 4666
ender 4667
▁când 4668
▁tempo 4669
zem 4670
▁zar 4671
▁pret 4672
▁Od 4673
bin 4674
oup 4675
νό 4676
nan 4677
▁prij 4678
▁anche 4679
ħa 4680
ske 4681
ję 4682
pra 4683
съ 4684
▁cl 4685
oved 4686
urile 4687
бле 4688
▁bal 4689
hor 4690
▁Dob 4691
▁ħa 4692
▁nak 4693
▁other 4694
▁Ка 4695
lijk 4696
▁molto 4697
τσι 4698
▁cette 4699
▁Mais 4700
▁these 4701
rib 4702
▁Med 4703
▁mí 4704
▁És 4705
▁před 4706
▁olen 4707
esc 4708
▁deb 4709
▁glob 4710
▁resp 4711
▁fant 4712
ká 4713
ємо 4714
▁abs 4715
▁біль 4716
▁zg 4717
▁στα 4718
ды 4719
ħseb 4720
▁fort 4721
υχ 4722
owe 4723
▁μπορεί 4724
,- 4725
▁ľ 4726
dom 4727
ség 4728
AAAA 4729
ogu 4730
klad 4731
▁czy 4732
šie 4733
▁viet 4734
▁mycket 4735
istr 4736
▁timp 4737
ges 4738
доб 4739
▁gdy 4740
▁был 4741
мы 4742
▁segu 4743
ace 4744
▁Mi 4745
ody 4746
▁απ 4747
тся 4748
▁skup 4749
тра 4750
▁csak 4751
pis 4752
ких 4753
jak 4754
▁kienet 4755
▁hur 4756
▁sto 4757
▁rest 4758
niej 4759
izi 4760
laus 4761
дь 4762
act 4763
▁Mor 4764
▁можете 4765
▁kw 4766
bién 4767
▁știi 4768
▁mater 4769
▁jär 4770
▁zad 4771
▁ļoti 4772
▁gå 4773
▁jin 4774
▁daudz 4775
▁toho 4776
ham 4777
στη 4778
▁dien 4779
kem 4780
▁πρό 4781
▁Але 4782
▁soci 4783
ază 4784
ley 4785
▁tech 4786
ной 4787
▁dav 4788
▁pros 4789
чески 4790
▁È 4791
▁Ger 4792
▁той 4793
▁който 4794
sob 4795
нима 4796
▁any 4797
ningen 4798
atie 4799
▁kak 4800
вро 4801
▁vše 4802
▁acest 4803
rop 4804
etta 4805
azzjoni 4806
īs 4807
тов 4808
▁apr 4809
▁cli 4810
▁poten 4811
ħra 4812
▁Tā 4813
▁mano 4814
▁hä 4815
ivel 4816
aje 4817
iera 4818
▁zw 4819
öd 4820
ými 4821
šen 4822
▁mă 4823
▁tamb 4824
ύτε 4825
▁ber 4826
▁προσ 4827
▁organiz 4828
▁къ 4829
μένο 4830
eden 4831
szer 4832
app 4833
tea 4834
▁där 4835
▁nije 4836
▁след 4837
egen 4838
isin 4839
▁myös 4840
▁signi 4841
ycz 4842
iß 4843
▁Hij 4844
▁prv 4845
▁conc 4846
ial 4847
▁Bar 4848
▁nis 4849
▁work 4850
ondol 4851
νή 4852
бира 4853
▁loro 4854
▁était 4855
ného 4856
▁Col 4857
▁kü 4858
▁proto 4859
mm 4860
▁Á 4861
▁olla 4862
iente 4863
▁apie 4864
lav 4865
▁pare 4866
кт 4867
▁sj 4868
▁meta 4869
amy 4870
▁lõ 4871
ejn 4872
▁Lo 4873
▁jsme 4874
ást 4875
раз 4876
▁Za 4877
▁ses 4878
▁here 4879
▁andere 4880
▁ly 4881
ώρα 4882
▁kle 4883
▁também 4884
▁няко 4885
ail 4886
atta 4887
▁amb 4888
▁prá 4889
▁време 4890
itos 4891
anud 4892
ford 4893
▁miss 4894
ekl 4895
▁Pol 4896
▁осно 4897
inden 4898
▁gali 4899
▁fakt 4900
ål 4901
▁grand 4902
elis 4903
▁sai 4904
вся 4905
▁põ 4906
▁odp 4907
tive 4908
▁tij 4909
▁Δεν 4910
ęs 4911
ņem 4912
δια 4913
eder 4914
ρία 4915
urg 4916
▁hj 4917
▁пі 4918
▁dia 4919
▁παρα 4920
bbe 4921
ров 4922
γκ 4923
▁ça 4924
▁vair 4925
rag 4926
iksi 4927
press 4928
ward 4929
vy 4930
ört 4931
▁Gre 4932
του 4933
▁waren 4934
ката 4935
isesti 4936
▁пе 4937
щото 4938
▁sest 4939
мя 4940
▁було 4941
▁vam 4942
▁osob 4943
abe 4944
ris 4945
▁было 4946
▁Sim 4947
▁pus 4948
▁taf 4949
▁verd 4950
▁есть 4951
▁Bu 4952
▁haar 4953
гля 4954
вання 4955
▁δύ 4956
▁faire 4957
▁olyan 4958
▁га 4959
▁вам 4960
ίο 4961
▁Θ 4962
hoz 4963
▁tor 4964
▁hvor 4965
▁cilvē 4966
ică 4967
▁moh 4968
▁ref 4969
▁pier 4970
▁дуже 4971
▁could 4972
pla 4973
▁exper 4974
▁Jis 4975
▁fut 4976
▁έχει 4977
έν 4978
пол 4979
▁cred 4980
▁toda 4981
▁possi 4982
aba 4983
ikk 4984
▁говори 4985
ști 4986
lt 4987
ția 4988
▁Maar 4989
чі 4990
dje 4991
vas 4992
▁inim 4993
čo 4994
ên 4995
▁Sh 4996
▁todo 4997
τω 4998
змо 4999
▁ham 5000
egu 5001
▁ima 5002
▁koje 5003
▁speci 5004
▁був 5005
▁ру 5006
▁tav 5007
▁pit 5008
blic 5009
▁igen 5010
odi 5011
bet 5012
ario 5013
▁καθ 5014
▁Pero 5015
rob 5016
ube 5017
▁знаете 5018
ále 5019
ijas 5020
лся 5021
▁або 5022
▁preto 5023
▁nagu 5024
▁nur 5025
▁habe 5026
▁meie 5027
oit 5028
▁eh 5029
▁пу 5030
ical 5031
din 5032
jel 5033
▁stru 5034
▁wurde 5035
zę 5036
hts 5037
▁dak 5038
▁sõ 5039
▁Ви 5040
▁други 5041
▁bare 5042
oon 5043
▁Він 5044
anz 5045
maz 5046
ump 5047
▁než 5048
▁которые 5049
▁compr 5050
cí 5051
▁jien 5052
жли 5053
liga 5054
▁Aber 5055
▁histor 5056
ool 5057
дей 5058
▁lim 5059
ischen 5060
▁än 5061
▁rob 5062
▁myslím 5063
▁delle 5064
ates 5065
▁fal 5066
▁einem 5067
▁który 5068
▁ř 5069
iri 5070
ött 5071
ustr 5072
rak 5073
▁також 5074
üüd 5075
▁cur 5076
itor 5077
▁syn 5078
iske 5079
рів 5080
arg 5081
šanas 5082
▁vă 5083
▁Quindi 5084
▁foarte 5085
kså 5086
▁bin 5087
žu 5088
▁byl 5089
▁mūsu 5090
ój 5091
ním 5092
uno 5093
dzi 5094
▁когато 5095
ăt 5096
nolog 5097
stä 5098
▁labai 5099
▁också 5100
ούν 5101
▁poved 5102
öv 5103
▁twe 5104
stav 5105
▁onder 5106
atu 5107
▁Во 5108
▁Ke 5109
▁oč 5110
▁dobro 5111
usti 5112
▁този 5113
▁Ό 5114
стро 5115
▁înt 5116
ovali 5117
jų 5118
▁können 5119
▁zaj 5120
æl 5121
▁denne 5122
žete 5123
▁fig 5124
ms 5125
тели 5126
gram 5127
lura 5128
▁may 5129
▁vill 5130
▁él 5131
▁ці 5132
▁turi 5133
oso 5134
▁wszyst 5135
▁Go 5136
▁pel 5137
▁dette 5138
▁mno 5139
▁casa 5140
шу 5141
▁bio 5142
▁eso 5143
idi 5144
▁чо 5145
▁minden 5146
▁také 5147
▁gad 5148
ppen 5149
ird 5150
▁tej 5151
▁Fl 5152
otta 5153
πάρχ 5154
▁aga 5155
øre 5156
▁muut 5157
▁Ei 5158
▁ši 5159
▁defin 5160
ota 5161
▁име 5162
▁mere 5163
кри 5164
▁dell 5165
▁Os 5166
▁ges 5167
ші 5168
aties 5169
▁kit 5170
țin 5171
▁realmente 5172
chter 5173
▁Он 5174
mun 5175
▁tit 5176
roz 5177
▁svar 5178
▁être 5179
▁mů 5180
▁rów 5181
ujú 5182
κι 5183
σουν 5184
▁são 5185
▁stato 5186
γά 5187
ful 5188
том 5189
▁Ein 5190
astă 5191
ällä 5192
▁før 5193
enas 5194
▁vse 5195
▁pesso 5196
enia 5197
ībā 5198
▁deux 5199
oko 5200
usa 5201
▁where 5202
cija 5203
col 5204
▁roku 5205
бі 5206
▁ang 5207
gra 5208
abar 5209
▁gondol 5210
▁naz 5211
▁nich 5212
сті 5213
▁minut 5214
▁οπο 5215
ior 5216
▁Mon 5217
▁cost 5218
ючи 5219
jev 5220
▁prote 5221
arna 5222
▁szám 5223
nú 5224
▁τε 5225
ivät 5226
▁sent 5227
ху 5228
ára 5229
▁hänen 5230
com 5231
ugh 5232
kli 5233
tere 5234
μή 5235
▁фи 5236
▁algo 5237
ires 5238
tte 5239
μαι 5240
▁rá 5241
essä 5242
▁nod 5243
▁njih 5244
▁despre 5245
φα 5246
ności 5247
▁weet 5248
▁kunnen 5249
▁naud 5250
ering 5251
▁deres 5252
▁how 5253
▁сте 5254
akse 5255
▁съм 5256
▁bit 5257
▁red 5258
▁onze 5259
hel 5260
ød 5261
▁bene 5262
▁nego 5263
▁diese 5264
тель 5265
stand 5266
iat 5267
εται 5268
▁sap 5269
lap 5270
jekt 5271
ssä 5272
▁Pe 5273
▁їх 5274
oten 5275
▁думаю 5276
ība 5277
▁сме 5278
▁mh 5279
▁first 5280
īv 5281
ļu 5282
cul 5283
▁tiegħi 5284
▁Nous 5285
sit 5286
tam 5287
▁Ni 5288
▁zav 5289
▁μπορού 5290
ží 5291
buie 5292
▁gew 5293
▁consider 5294
▁einer 5295
esen 5296
▁Tom 5297
osto 5298
ρισ 5299
▁lehet 5300
stu 5301
▁Don 5302
▁υπο 5303
▁sano 5304
lia 5305
▁sid 5306
▁vaik 5307
ók 5308
ęp 5309
▁uno 5310
▁pole 5311
ują 5312
eter 5313
imal 5314
ares 5315
▁dėl 5316
▁pien 5317
inst 5318
стве 5319
way 5320
▁αυ 5321
igin 5322
▁vás 5323
tik 5324
κολ 5325
▁ден 5326
▁Mutta 5327
▁esper 5328
λό 5329
▁lok 5330
▁bine 5331
▁daž 5332
▁dest 5333
nj 5334
udi 5335
▁их 5336
▁jau 5337
used 5338
▁κατά 5339
▁oss 5340
▁väga 5341
▁Ма 5342
▁hvad 5343
стра 5344
▁áll 5345
ξη 5346
jat 5347
зы 5348
čas 5349
vé 5350
hem 5351
ême 5352
▁havde 5353
▁przez 5354
▁пове 5355
▁ω 5356
▁aug 5357
▁mūsų 5358
тер 5359
ational 5360
▁look 5361
▁disc 5362
rom 5363
▁ри 5364
▁meer 5365
▁ци 5366
▁Som 5367
▁ljudi 5368
▁cir 5369
▁zou 5370
ίνει 5371
дела 5372
▁rem 5373
▁tule 5374
▁там 5375
▁strateg 5376
▁tagħhom 5377
sel 5378
▁tiegħek 5379
erna 5380
▁cosa 5381
▁kõik 5382
▁Taigi 5383
▁swo 5384
▁Jed 5385
▁treb 5386
δώ 5387
gov 5388
kkor 5389
▁če 5390
▁dog 5391
▁vlast 5392
▁palju 5393
дат 5394
▁zal 5395
▁got 5396
▁only 5397
▁tren 5398
зможно 5399
▁jotka 5400
▁energ 5401
▁wel 5402
▁naše 5403
▁иска 5404
uses 5405
ism 5406
▁cela 5407
▁Ob 5408
ture 5409
▁visi 5410
▁senti 5411
▁бъде 5412
▁lát 5413
nosť 5414
▁koll 5415
▁use 5416
▁тре 5417
atel 5418
ya 5419
▁līdz 5420
cze 5421
nit 5422
line 5423
▁bei 5424
▁эти 5425
▁Mislim 5426
ibt 5427
▁если 5428
rot 5429
▁ktorý 5430
īm 5431
▁Val 5432
▁Tur 5433
▁cit 5434
▁nagyon 5435
ök 5436
▁spo 5437
▁ment 5438
nad 5439
áb 5440
▁bý 5441
▁Pod 5442
▁hund 5443
iner 5444
anta 5445
▁precis 5446
▁Als 5447
▁käyt 5448
öl 5449
rt 5450
▁Tu 5451
▁selv 5452
vait 5453
▁отно 5454
нг 5455
▁ką 5456
▁πρέπει 5457
qa 5458
▁pir 5459
dat 5460
vod 5461
▁geen 5462
isch 5463
nega 5464
ró 5465
▁esto 5466
undo 5467
bes 5468
▁lub 5469
▁még 5470
ιδ 5471
▁kurie 5472
zik 5473
▁также 5474
ować 5475
▁chc 5476
▁тези 5477
ño 5478
dar 5479
▁jel 5480
шен 5481
пита 5482
rač 5483
▁vär 5484
▁save 5485
μπ 5486
ned 5487
row 5488
▁vám 5489
▁exc 5490
isz 5491
▁tip 5492
▁úgy 5493
▁good 5494
▁econom 5495
▁πρα 5496
▁noch 5497
▁result 5498
▁mislim 5499
ψη 5500
▁Sam 5501
ames 5502
▁Des 5503
▁actu 5504
▁помо 5505
ствен 5506
▁iesp 5507
стоя 5508
pend 5509
▁ftit 5510
▁toim 5511
▁eng 5512
▁My 5513
▁Huwa 5514
▁doar 5515
▁δε 5516
owie 5517
лы 5518
▁muy 5519
▁tän 5520
▁savu 5521
lab 5522
▁ces 5523
▁kons 5524
▁stad 5525
▁viņu 5526
▁μό 5527
рата 5528
▁lis 5529
dem 5530
▁între 5531
▁üks 5532
pus 5533
▁який 5534
▁Kun 5535
▁mån 5536
▁Той 5537
▁oprav 5538
nas 5539
гла 5540
▁inten 5541
uer 5542
▁вър 5543
зе 5544
▁од 5545
cej 5546
стви 5547
▁last 5548
zin 5549
прав 5550
▁meu 5551
▁mitä 5552
bej 5553
σετε 5554
ieren 5555
▁past 5556
▁autom 5557
▁dintre 5558
σία 5559
бра 5560
▁към 5561
tev 5562
чень 5563
▁dus 5564
▁ast 5565
▁zur 5566
ian 5567
▁Este 5568
▁tipo 5569
ron 5570
▁trim 5571
▁momento 5572
ків 5573
fen 5574
pak 5575
▁hacer 5576
нието 5577
▁prip 5578
▁Щ 5579
▁uv 5580
▁Was 5581
▁který 5582
som 5583
ρου 5584
onna 5585
▁Então 5586
▁ember 5587
▁ж 5588
iš 5589
lič 5590
▁posto 5591
yy 5592
ador 5593
▁Rob 5594
ції 5595
▁liber 5596
mission 5597
cji 5598
▁ră 5599
ittä 5600
▁Ve 5601
▁famil 5602
▁пробле 5603
▁Egy 5604
▁York 5605
▁Los 5606
▁ekonom 5607
▁ihr 5608
▁zag 5609
▁fav 5610
ittle 5611
roj 5612
ées 5613
▁τέ 5614
mien 5615
▁wor 5616
▁going 5617
λει 5618
▁elő 5619
▁mich 5620
▁difer 5621
▁há 5622
ίε 5623
вам 5624
▁Mu 5625
▁Kas 5626
▁sok 5627
▁люди 5628
▁amikor 5629
ġi 5630
δή 5631
хме 5632
▁noget 5633
▁aceste 5634
▁investi 5635
idos 5636
▁Kui 5637
ional 5638
▁long 5639
▁fazer 5640
egy 5641
anden 5642
▁prot 5643
бно 5644
▁nen 5645
lub 5646
ots 5647
тно 5648
нен 5649
imme 5650
▁doc 5651
▁ils 5652
ξει 5653
▁perché 5654
рите 5655
▁väh 5656
▁comun 5657
▁forts 5658
▁lihts 5659
yw 5660
▁каза 5661
мент 5662
▁kaj 5663
▁viel 5664
poi 5665
лан 5666
aria 5667
estä 5668
▁doen 5669
▁tista 5670
▁göra 5671
▁работа 5672
bat 5673
▁kde 5674
imento 5675
oper 5676
mp 5677
δη 5678
iog 5679
▁Reg 5680
▁pró 5681
▁say 5682
▁ако 5683
▁równie 5684
abel 5685
▁tir 5686
▁than 5687
▁Tam 5688
▁pes 5689
óóóó 5690
▁redz 5691
cin 5692
plo 5693
▁Kar 5694
▁jas 5695
onder 5696
▁буду 5697
ides 5698
▁αυτή 5699
ким 5700
ято 5701
anza 5702
▁Λ 5703
бити 5704
▁bardzo 5705
ised 5706
▁она 5707
▁zich 5708
▁годи 5709
čių 5710
ная 5711
atur 5712
▁sud 5713
πη 5714
▁beau 5715
▁prop 5716
▁Va 5717
iset 5718
рова 5719
▁мене 5720
ład 5721
лно 5722
ėt 5723
νομ 5724
▁hvis 5725
kim 5726
lige 5727
ujem 5728
▁mik 5729
rer 5730
ones 5731
idades 5732
▁sé 5733
▁Mad 5734
▁teraz 5735
kan 5736
▁До 5737
kay 5738
▁equ 5739
▁сло 5740
▁вона 5741
▁finns 5742
sem 5743
zna 5744
▁eg 5745
▁през 5746
кре 5747
▁меня 5748
fatt 5749
▁ons 5750
kä 5751
quer 5752
ních 5753
irt 5754
▁bħ 5755
▁arm 5756
▁prima 5757
rok 5758
▁cond 5759
▁hely 5760
▁cuando 5761
▁Бо 5762
▁ξέ 5763
▁ты 5764
robi 5765
▁fre 5766
▁lik 5767
ωωωω 5768
xi 5769
пі 5770
▁вико 5771
imt 5772
▁czas 5773
▁darb 5774
▁quer 5775
βα 5776
дер 5777
▁ef 5778
▁Mus 5779
ätkö 5780
▁Taip 5781
▁ble 5782
▁рас 5783
▁place 5784
▁ziniet 5785
сет 5786
▁ain 5787
▁Chr 5788
ільки 5789
▁mehr 5790
has 5791
oth 5792
τυ 5793
▁ċ 5794
σαν 5795
▁reik 5796
▁right 5797
iser 5798
lé 5799
▁tú 5800
▁għa 5801
▁всички 5802
άρ 5803
▁Така 5804
▁această 5805
▁protože 5806
▁również 5807
rin 5808
▁wordt 5809
▁Οι 5810
▁boli 5811
▁jeden 5812
▁mensen 5813
dział 5814
▁ener 5815
uc 5816
ják 5817
elik 5818
▁дей 5819
▁τό 5820
▁fran 5821
tica 5822
▁important 5823
što 5824
▁ela 5825
▁câ 5826
▁jon 5827
▁pav 5828
eksi 5829
tar 5830
idas 5831
▁pää 5832
▁égal 5833
▁hanno 5834
ół 5835
ása 5836
▁fot 5837
▁обра 5838
ācij 5839
▁bon 5840
▁funk 5841
jes 5842
ansa 5843
iert 5844
▁domāju 5845
ao 5846
▁lev 5847
▁zosta 5848
▁tě 5849
iais 5850
▁прои 5851
▁pretože 5852
▁Як 5853
▁importante 5854
wy 5855
▁way 5856
ember 5857
▁Om 5858
▁dva 5859
▁több 5860
▁detta 5861
▁очень 5862
▁jen 5863
▁Про 5864
▁тази 5865
▁sabe 5866
▁Viņš 5867
▁jagħ 5868
iez 5869
вто 5870
▁cele 5871
adz 5872
▁быть 5873
▁Ú 5874
anc 5875
til 5876
▁Voc 5877
▁într 5878
▁Αυτό 5879
▁constru 5880
▁She 5881
λώ 5882
ście 5883
▁cui 5884
inger 5885
lasti 5886
koz 5887
▁már 5888
▁vaj 5889
etzt 5890
σσ 5891
das 5892
yll 5893
▁ī 5894
▁них 5895
ivi 5896
▁її 5897
atti 5898
▁Ten 5899
▁très 5900
▁également 5901
▁Jak 5902
ror 5903
enty 5904
▁akkor 5905
▁Europa 5906
▁Ph 5907
fore 5908
assen 5909
▁trad 5910
▁should 5911
inge 5912
uz 5913
▁която 5914
mă 5915
▁essa 5916
▁мне 5917
▁base 5918
ait 5919
гле 5920
▁durante 5921
кой 5922
▁liet 5923
tem 5924
▁Nä 5925
▁ev 5926
▁него 5927
ape 5928
raj 5929
▁origin 5930
▁vær 5931
▁Você 5932
▁πραγμα 5933
aste 5934
▁pirm 5935
▁interess 5936
▁φο 5937
▁koja 5938
▁prov 5939
ге 5940
nut 5941
▁Singapore 5942
ath 5943
prav 5944
тите 5945
▁над 5946
▁pär 5947
▁dzie 5948
▁Singapur 5949
▁būti 5950
juč 5951
▁být 5952
▁public 5953
elor 5954
▁pis 5955
ικο 5956
jali 5957
olla 5958
▁tega 5959
öm 5960
liv 5961
áme 5962
▁άν 5963
ibil 5964
▁više 5965
▁Kai 5966
▁really 5967
▁ħaġa 5968
πί 5969
▁cen 5970
▁ves 5971
▁modo 5972
▁vrij 5973
▁lag 5974
▁ľud 5975
▁život 5976
kst 5977
uter 5978
▁Pok 5979
▁alc 5980
▁mov 5981
▁mun 5982
▁гру 5983
▁espe 5984
▁malo 5985
▁υπάρχ 5986
tais 5987
gin 5988
ēju 5989
▁pic 5990
łe 5991
▁werd 5992
▁nekaj 5993
▁veľmi 5994
ię 5995
fon 5996
▁ευ 5997
▁Char 5998
āl 5999
▁рі 6000
дите 6001
pă 6002
▁așa 6003
▁back 6004
▁avons 6005
lá 6006
ným 6007
▁notre 6008
jeb 6009
▁Jos 6010
▁suo 6011
▁kuul 6012
▁един 6013
ric 6014
ном 6015
▁apro 6016
stvo 6017
ative 6018
▁preg 6019
▁¡ 6020
ious 6021
▁sna 6022
qs 6023
tag 6024
itan 6025
ними 6026
feren 6027
▁Dak 6028
▁podob 6029
▁Ра 6030
voir 6031
▁vår 6032
▁koska 6033
fol 6034
циа 6035
▁пока 6036
▁oleks 6037
▁vairāk 6038
ough 6039
ника 6040
ož 6041
μι 6042
uts 6043
▁ya 6044
▁ann 6045
▁byť 6046
▁добре 6047
uč 6048
▁kod 6049
▁nei 6050
▁tikr 6051
vät 6052
▁δη 6053
tige 6054
▁make 6055
▁lihtsalt 6056
γή 6057
ory 6058
жна 6059
▁log 6060
▁supp 6061
▁Ш 6062
▁hot 6063
▁Deci 6064
▁продо 6065
▁kollha 6066
▁versch 6067
▁Pot 6068
▁nás 6069
▁hawn 6070
▁dim 6071
ay 6072
▁šo 6073
▁kre 6074
гі 6075
änd 6076
▁ped 6077
▁им 6078
itte 6079
▁takže 6080
obil 6081
▁нам 6082
▁bili 6083
▁nella 6084
▁helt 6085
ħed 6086
▁svet 6087
▁invest 6088
▁partner 6089
że 6090
▁Ce 6091
ência 6092
▁kult 6093
▁univers 6094
▁Não 6095
▁due 6096
▁через 6097
▁rig 6098
▁tkun 6099
det 6100
▁yo 6101
▁čet 6102
▁They 6103
apt 6104
lej 6105
ungs 6106
▁στι 6107
▁kienu 6108
рта 6109
▁mä 6110
mos 6111
▁ry 6112
▁elle 6113
▁hekk 6114
▁Å 6115
чай 6116
īja 6117
▁té 6118
▁Как 6119
kum 6120
rea 6121
fik 6122
рно 6123
▁žm 6124
▁nyt 6125
▁toh 6126
▁hö 6127
▁suis 6128
▁trebuie 6129
υσ 6130
zel 6131
▁вели 6132
ést 6133
▁hv 6134
▁hos 6135
▁όπω 6136
▁Miss 6137
тів 6138
▁amer 6139
▁ži 6140
νά 6141
kla 6142
ænd 6143
▁Ih 6144
▁Jah 6145
▁Αλλά 6146
όν 6147
тив 6148
▁ust 6149
▁Tämä 6150
▁donc 6151
▁moje 6152
▁siitä 6153
kte 6154
▁gospod 6155
▁Зна 6156
▁char 6157
agħad 6158
▁Ü 6159
ían 6160
għid 6161
▁wil 6162
▁moet 6163
▁tart 6164
ossa 6165
▁aux 6166
▁thro 6167
▁jog 6168
стина 6169
▁ó 6170
pol 6171
γρα 6172
καν 6173
▁Ed 6174
ră 6175
▁mogu 6176
φή 6177
utat 6178
▁był 6179
▁πιο 6180
ograf 6181
▁όταν 6182
▁vienkār 6183
ief 6184
erea 6185
elles 6186
▁tiem 6187
▁también 6188
▁- 6189
uró 6190
wel 6191
itud 6192
▁prem 6193
▁доста 6194
▁ги 6195
▁Kon 6196
▁välja 6197
ман 6198
▁kus 6199
▁prez 6200
▁propri 6201
▁gam 6202
▁rés 6203
▁tru 6204
▁στον 6205
тен 6206
ajte 6207
▁jäl 6208
▁täh 6209
issen 6210
▁maž 6211
egi 6212
▁κο 6213
▁δύο 6214
▁якщо 6215
▁Mc 6216
кого 6217
čnosti 6218
υνα 6219
▁mest 6220
▁visu 6221
▁σύ 6222
▁Се 6223
uth 6224
▁któr 6225
▁well 6226
▁somet 6227
cur 6228
iger 6229
▁problema 6230
▁bun 6231
▁andra 6232
▁paljon 6233
▁μετα 6234
▁primer 6235
ské 6236
ños 6237
▁Vous 6238
ią 6239
▁Kr 6240
▁Мы 6241
▁run 6242
istas 6243
▁kanssa 6244
▁Tod 6245
▁moj 6246
▁dessa 6247
над 6248
▁szeret 6249
pie 6250
▁polic 6251
aient 6252
atori 6253
cional 6254
▁tanto 6255
▁сдела 6256
aszt 6257
ämän 6258
▁grund 6259
▁exp 6260
▁absol 6261
ųjų 6262
▁εδώ 6263
▁mert 6264
▁vraiment 6265
óg 6266
ách 6267
▁fă 6268
▁pam 6269
▁Fil 6270
▁vod 6271
acc 6272
▁ло 6273
omis 6274
▁hall 6275
▁vys 6276
▁ακ 6277
▁ehm 6278
ege 6279
ėja 6280
▁hoe 6281
▁otr 6282
▁цього 6283
ule 6284
nies 6285
▁memb 6286
▁stop 6287
▁więc 6288
uo 6289
кто 6290
▁vá 6291
▁questa 6292
▁rezult 6293
aux 6294
kat 6295
▁μη 6296
▁rom 6297
▁peut 6298
▁vendar 6299
jam 6300
▁ál 6301
▁fram 6302
ную 6303
▁ді 6304
▁Ako 6305
▁vak 6306
▁vec 6307
ex 6308
▁вер 6309
▁niek 6310
▁tikai 6311
▁interes 6312
▁blo 6313
▁tin 6314
▁rece 6315
bagħad 6316
▁gör 6317
▁σημα 6318
στα 6319
▁durch 6320
▁Li 6321
▁sehr 6322
▁будет 6323
▁компа 6324
zien 6325
▁san 6326
▁frem 6327
▁людей 6328
liš 6329
sin 6330
▁nõ 6331
gress 6332
▁minu 6333
▁soll 6334
aa 6335
▁sia 6336
▁votre 6337
ót 6338
cias 6339
▁осо 6340
▁iżda 6341
▁siin 6342
λω 6343
▁sei 6344
▁час 6345
▁Ser 6346
▁nagħ 6347
▁πό 6348
umus 6349
▁gibt 6350
▁noast 6351
kie 6352
▁Áno 6353
▁Au 6354
orth 6355
▁process 6356
dev 6357
ній 6358
▁būt 6359
▁encont 6360
▁ket 6361
hmen 6362
лага 6363
▁made 6364
▁intern 6365
aren 6366
▁lep 6367
▁všech 6368
ână 6369
цен 6370
▁dô 6371
▁fond 6372
▁хоро 6373
▁måste 6374
nov 6375
▁χα 6376
blik 6377
▁Bro 6378
▁pur 6379
▁были 6380
zni 6381
▁év 6382
ison 6383
tima 6384
▁lavor 6385
▁complet 6386
▁πάν 6387
▁kunne 6388
λευ 6389
▁ξε 6390
▁unter 6391
▁trabal 6392
άζ 6393
▁ihm 6394
ονται 6395
зда 6396
▁rag 6397
▁mare 6398
▁предста 6399
pin 6400
▁цен 6401
ři 6402
▁tat 6403
▁mont 6404
▁spor 6405
ća 6406
hand 6407
ében 6408
pect 6409
żi 6410
cker 6411
▁tou 6412
▁powie 6413
зі 6414
īgs 6415
▁anti 6416
▁való 6417
▁alles 6418
▁lugar 6419
▁hay 6420
▁little 6421
▁veliko 6422
▁új 6423
▁tel 6424
вропе 6425
▁leur 6426
▁eigen 6427
inių 6428
oden 6429
▁dann 6430
▁jego 6431
▁obser 6432
▁pia 6433
ities 6434
▁estava 6435
вор 6436
pper 6437
лаго 6438
▁déc 6439
коно 6440
▁led 6441
▁går 6442
▁weiß 6443
wij 6444
мента 6445
▁būtu 6446
▁spus 6447
▁багато 6448
▁Cu 6449
▁mok 6450
uli 6451
▁Gra 6452
▁potr 6453
▁один 6454
fü 6455
nje 6456
aron 6457
▁Geor 6458
ço 6459
▁ισ 6460
▁също 6461
dę 6462
žia 6463
▁gel 6464
▁vida 6465
▁system 6466
▁повече 6467
ijke 6468
▁amit 6469
▁každ 6470
▁upor 6471
øl 6472
рти 6473
ikti 6474
▁lar 6475
▁sis 6476
enter 6477
▁mani 6478
wk 6479
▁así 6480
▁sing 6481
▁three 6482
duc 6483
▁rze 6484
нес 6485
▁euh 6486
▁sitä 6487
▁trab 6488
▁stvari 6489
▁pessoas 6490
ню 6491
erson 6492
▁still 6493
cas 6494
äng 6495
▁All 6496
▁lat 6497
▁сві 6498
▁förs 6499
▁tiesiog 6500
ště 6501
▁бя 6502
ager 6503
ravo 6504
šanu 6505
▁fem 6506
▁hol 6507
▁gaan 6508
від 6509
orit 6510
▁επίση 6511
▁Dav 6512
▁goed 6513
▁запо 6514
▁abbiamo 6515
гна 6516
ură 6517
inda 6518
▁Allura 6519
▁kaikki 6520
▁Vai 6521
▁same 6522
▁exemp 6523
▁Mēs 6524
θή 6525
inė 6526
▁cres 6527
▁hatte 6528
igo 6529
lja 6530
дъл 6531
▁sad 6532
▁regul 6533
ování 6534
▁дела 6535
▁probab 6536
śl 6537
heit 6538
▁new 6539
▁всі 6540
▁così 6541
▁mur 6542
lation 6543
íz 6544
dal 6545
▁ха 6546
ką 6547
ară 6548
▁nuo 6549
▁mell 6550
▁must 6551
ème 6552
bolj 6553
▁ren 6554
σσότε 6555
▁περισσότε 6556
▁hele 6557
▁merc 6558
elő 6559
tir 6560
▁ug 6561
▁får 6562
▁Είναι 6563
▁ing 6564
▁vin 6565
not 6566
▁lé 6567
▁arv 6568
▁być 6569
ņu 6570
▁зо 6571
▁Mal 6572
▁отри 6573
▁chose 6574
▁ί 6575
λου 6576
▁poss 6577
χή 6578
imos 6579
▁bodo 6580
ált 6581
ání 6582
ích 6583
лее 6584
▁pense 6585
▁stabil 6586
kti 6587
λύτε 6588
▁мені 6589
▁sik 6590
▁Хо 6591
▁лі 6592
▁mhux 6593
▁нещо 6594
▁Tag 6595
▁sempre 6596
чат 6597
▁fü 6598
anno 6599
fach 6600
▁jei 6601
▁защото 6602
▁Nor 6603
▁gla 6604
itatea 6605
▁neces 6606
ppe 6607
▁denk 6608
▁pré 6609
ļa 6610
▁Komis 6611
hos 6612
▁vert 6613
jest 6614
▁lot 6615
▁πρά 6616
ements 6617
▁έχουν 6618
▁rod 6619
▁tis 6620
гли 6621
▁át 6622
rait 6623
▁San 6624
entar 6625
umo 6626
▁konkur 6627
ča 6628
vero 6629
▁bolo 6630
▁echt 6631
τρο 6632
▁cul 6633
▁κοι 6634
āja 6635
rid 6636
▁Ber 6637
klich 6638
▁bylo 6639
▁ří 6640
fica 6641
мати 6642
▁vég 6643
▁гла 6644
чение 6645
▁asem 6646
▁mand 6647
▁estão 6648
ερ 6649
▁imma 6650
avat 6651
▁Ω 6652
▁proti 6653
▁sigur 6654
▁две 6655
▁είχε 6656
▁trava 6657
už 6658
ală 6659
▁kart 6660
▁There 6661
rez 6662
ρια 6663
▁Gu 6664
onte 6665
▁Nad 6666
▁kör 6667
▁tyl 6668
▁būtų 6669
▁prime 6670
aff 6671
icu 6672
сле 6673
umas 6674
▁συν 6675
▁mine 6676
▁simpl 6677
▁necess 6678
yllä 6679
θηκε 6680
▁call 6681
▁бути 6682
▁bħala 6683
ei 6684
лия 6685
▁Wh 6686
▁tab 6687
▁oike 6688
▁persone 6689
ħna 6690
▁Jien 6691
цю 6692
enza 6693
▁bör 6694
ieważ 6695
łu 6696
▁może 6697
▁même 6698
▁tutto 6699
umā 6700
was 6701
реди 6702
▁učin 6703
μφ 6704
kou 6705
kre 6706
пла 6707
▁find 6708
▁nech 6709
ortun 6710
ľa 6711
δι 6712
ħab 6713
iems 6714
▁fare 6715
ness 6716
umiem 6717
▁biss 6718
▁Din 6719
▁rap 6720
▁zum 6721
▁ting 6722
ших 6723
▁cho 6724
üs 6725
kow 6726
▁izm 6727
▁Mich 6728
▁ceea 6729
▁zien 6730
oh 6731
▁acum 6732
▁sens 6733
▁Έτσι 6734
aly 6735
elet 6736
▁κάπο 6737
▁голо 6738
ступ 6739
▁hit 6740
bro 6741
tos 6742
osten 6743
▁κάτι 6744
▁savez 6745
вропей 6746
▁fund 6747
▁мога 6748
ťa 6749
bel 6750
ury 6751
▁κό 6752
skat 6753
▁mam 6754
▁jist 6755
вата 6756
ун 6757
oku 6758
vaj 6759
▁ami 6760
erste 6761
jec 6762
вав 6763
▁Ag 6764
▁Sc 6765
▁jų 6766
▁Če 6767
▁kesk 6768
жду 6769
▁uč 6770
omas 6771
▁вклю 6772
▁испо 6773
▁moeten 6774
aug 6775
sid 6776
▁US 6777
▁ее 6778
чина 6779
▁demok 6780
▁töö 6781
▁потрі 6782
ēram 6783
gende 6784
▁take 6785
рес 6786
вания 6787
▁spos 6788
▁poder 6789
▁dez 6790
▁vyt 6791
▁Vo 6792
▁tah 6793
▁tead 6794
▁Tre 6795
esa 6796
zés 6797
plat 6798
▁otro 6799
▁einfach 6800
▁vienkārši 6801
ye 6802
ént 6803
лкова 6804
tenant 6805
▁multe 6806
▁inti 6807
▁iespēj 6808
udo 6809
ektr 6810
igur 6811
▁activ 6812
▁había 6813
τρα 6814
▁dů 6815
ležit 6816
▁Lond 6817
▁avait 6818
▁problém 6819
nar 6820
дом 6821
▁σκ 6822
писа 6823
▁down 6824
▁поло 6825
raš 6826
▁cop 6827
▁pove 6828
▁milli 6829
ieš 6830
anju 6831
▁však 6832
▁этом 6833
▁cou 6834
▁Wenn 6835
ков 6836
▁perm 6837
▁zdrav 6838
alen 6839
▁cro 6840
▁чем 6841
▁aqui 6842
fs 6843
åt 6844
keit 6845
▁время 6846
▁wieħed 6847
вин 6848
▁Mer 6849
▁jus 6850
▁many 6851
mlu 6852
zej 6853
▁tämä 6854
▁ollut 6855
▁sü 6856
teen 6857
▁show 6858
▁întâ 6859
▁prad 6860
▁sign 6861
▁social 6862
omo 6863
▁gł 6864
ason 6865
iekš 6866
▁Fra 6867
▁fiz 6868
▁виде 6869
far 6870
jut 6871
▁krit 6872
▁então 6873
inis 6874
alifor 6875
adu 6876
emi 6877
ilu 6878
клад 6879
▁Iva 6880
▁after 6881
▁Can 6882
▁тех 6883
ються 6884
κόμα 6885
▁något 6886
ún 6887
вим 6888
oste 6889
ξε 6890
▁wirklich 6891
▁Ev 6892
▁ütles 6893
▁Myslím 6894
ħda 6895
πή 6896
jší 6897
ähr 6898
▁fis 6899
▁були 6900
▁realiz 6901
▁lí 6902
▁jät 6903
▁når 6904
inote 6905
ρίζ 6906
nika 6907
▁cha 6908
▁dam 6909
▁ingen 6910
▁toate 6911
▁naħseb 6912
olat 6913
▁χρη 6914
ću 6915
aki 6916
nings 6917
▁tento 6918
▁ją 6919
▁wür 6920
round 6921
▁What 6922
urd 6923
▁jį 6924
▁Fre 6925
▁bych 6926
▁свои 6927
son 6928
ству 6929
ικέ 6930
▁För 6931
était 6932
▁apenas 6933
▁Ä 6934
ются 6935
▁Dus 6936
▁cri 6937
▁byla 6938
ēd 6939
alu 6940
ющи 6941
itti 6942
ными 6943
▁poh 6944
▁пов 6945
▁rela 6946
▁может 6947
▁iden 6948
▁immer 6949
tö 6950
▁sí 6951
heden 6952
▁ukoll 6953
▁diffic 6954
ън 6955
ίζω 6956
лич 6957
нето 6958
,. 6959
λί 6960
▁honom 6961
▁kohta 6962
▁those 6963
log 6964
enda 6965
rå 6966
μέν 6967
▁aktiv 6968
imy 6969
▁lö 6970
ibli 6971
▁rok 6972
▁συνέ 6973
đu 6974
▁Iz 6975
▁αρ 6976
unca 6977
▁Sin 6978
▁pēc 6979
ovala 6980
▁termin 6981
▁Di 6982
▁Wo 6983
ούμε 6984
anten 6985
estre 6986
▁спра 6987
ināt 6988
▁вла 6989
▁għax 6990
▁tutti 6991
▁nast 6992
▁seus 6993
▁ét 6994
govor 6995
▁peu 6996
▁Dies 6997
▁толкова 6998
ppo 6999
inud 7000
part 7001
▁знаю 7002
▁contra 7003
▁divers 7004
šli 7005
ekom 7006
▁dawn 7007
▁putea 7008
dag 7009
řed 7010
▁Jā 7011
tori 7012
unud 7013
▁въз 7014
▁Mens 7015
atr 7016
tac 7017
▁That 7018
▁võib 7019
▁μεγά 7020
▁lon 7021
▁Για 7022
elig 7023
oare 7024
nyt 7025
▁mia 7026
▁χρό 7027
▁наи 7028
▁більше 7029
▁уве 7030
▁point 7031
ший 7032
ползва 7033
▁jó 7034
▁Åh 7035
▁fie 7036
▁преди 7037
▁mé 7038
fo 7039
ihin 7040
agu 7041
iskt 7042
▁God 7043
▁jim 7044
▁jste 7045
▁zelo 7046
▁τόσο 7047
ною 7048
coup 7049
vern 7050
▁usk 7051
▁Toda 7052
▁vier 7053
olt 7054
jiet 7055
lex 7056
ése 7057
łą 7058
кс 7059
▁apl 7060
iller 7061
▁Igen 7062
▁antes 7063
▁contr 7064
kra 7065
owy 7066
ėtų 7067
▁hus 7068
āv 7069
zza 7070
ρετε 7071
σιμο 7072
▁tax 7073
▁още 7074
▁который 7075
ály 7076
alle 7077
imes 7078
kiem 7079
▁certain 7080
mény 7081
▁gov 7082
▁διά 7083
▁která 7084
▁nende 7085
šķ 7086
▁način 7087
aw 7088
ριο 7089
amil 7090
▁ско 7091
▁does 7092
▁prih 7093
▁genom 7094
▁dor 7095
▁ric 7096
▁tylko 7097
▁open 7098
▁produc 7099
▁through 7100
▁tým 7101
áte 7102
ход 7103
▁give 7104
▁praw 7105
▁indiv 7106
icz 7107
unos 7108
▁kuris 7109
▁σχ 7110
▁ор 7111
▁lan 7112
ander 7113
iselt 7114
ontos 7115
этому 7116
▁ostat 7117
šte 7118
▁By 7119
▁dl 7120
▁Θα 7121
anne 7122
ball 7123
▁dobre 7124
▁velmi 7125
▁Jer 7126
▁Mit 7127
▁tell 7128
ρυ 7129
ття 7130
▁zwe 7131
▁YouT 7132
áva 7133
▁iar 7134
▁только 7135
áj 7136
øj 7137
мери 7138
avi 7139
yer 7140
äll 7141
▁fatto 7142
try 7143
▁twee 7144
ything 7145
▁получи 7146
▁tuo 7147
ėra 7148
▁Β 7149
minist 7150
▁meine 7151
ají 7152
nte 7153
▁fly 7154
▁rid 7155
▁tras 7156
óż 7157
▁jaun 7158
fu 7159
нов 7160
▁vå 7161
▁four 7162
▁prid 7163
imu 7164
вид 7165
▁vom 7166
▁какво 7167
utu 7168
вий 7169
▁kän 7170
десет 7171
▁tiedätkö 7172
bt 7173
ин 7174
▁Sm 7175
iche 7176
▁cat 7177
ordan 7178
▁două 7179
ството 7180
▁λί 7181
▁sas 7182
▁vro 7183
▁Finn 7184
▁част 7185
wię 7186
ční 7187
▁mõt 7188
▁enor 7189
īga 7190
▁Pu 7191
▁lor 7192
▁еще 7193
▁jaoks 7194
▁padar 7195
▁Χ 7196
яви 7197
▁zp 7198
▁norm 7199
atte 7200
ците 7201
▁jou 7202
▁rää 7203
▁potreb 7204
▁hundred 7205
ney 7206
▁sina 7207
▁second 7208
cat 7209
▁gøre 7210
adores 7211
▁market 7212
λοι 7213
▁Ну 7214
ksen 7215
▁Kan 7216
▁peri 7217
▁συνε 7218
▁human 7219
▁suure 7220
ické 7221
ará 7222
kam 7223
▁ky 7224
ával 7225
▁sod 7226
▁περί 7227
▁potom 7228
ameni 7229
▁μόνο 7230
▁няма 7231
▁estamos 7232
olj 7233
opa 7234
pun 7235
λεί 7236
▁noi 7237
▁liik 7238
▁piem 7239
▁αυτά 7240
бя 7241
bit 7242
eken 7243
tiva 7244
▁Aga 7245
kelig 7246
зь 7247
aram 7248
znál 7249
tava 7250
лити 7251
▁παρά 7252
▁talál 7253
cup 7254
ült 7255
лись 7256
▁Ναι 7257
▁liel 7258
▁such 7259
▁gebru 7260
onu 7261
ters 7262
unci 7263
▁viac 7264
▁zgod 7265
▁final 7266
▁больше 7267
nji 7268
čne 7269
▁TV 7270
▁kis 7271
▁osa 7272
jad 7273
ují 7274
▁If 7275
▁paar 7276
▁jeśli 7277
▁add 7278
amaan 7279
▁cour 7280
▁tomto 7281
▁исполь 7282
āka 7283
▁två 7284
▁Għal 7285
▁gewo 7286
▁неща 7287
▁Sk 7288
king 7289
▁rep 7290
▁list 7291
mus 7292
жение 7293
▁nici 7294
▁Inter 7295
▁profess 7296
▁Parlament 7297
▁Gal 7298
▁lill 7299
▁teis 7300
▁была 7301
▁använ 7302
ържа 7303
ety 7304
zor 7305
æt 7306
▁six 7307
▁sum 7308
▁fordi 7309
▁quanto 7310
▁projekt 7311
▁beaucoup 7312
udu 7313
ări 7314
ším 7315
▁Sta 7316
▁ανά 7317
▁const 7318
▁roh 7319
▁σχε 7320
кан 7321
▁tus 7322
▁jkun 7323
▁можу 7324
ээ 7325
rab 7326
▁zi 7327
ások 7328
▁mean 7329
чин 7330
▁yh 7331
och 7332
нию 7333
▁ше 7334
▁Cor 7335
▁lov 7336
▁imag 7337
▁žmon 7338
▁ď 7339
ρει 7340
▁Доб 7341
elm 7342
стру 7343
▁zan 7344
▁mange 7345
ső 7346
▁nám 7347
▁jaar 7348
▁profes 7349
▁Cre 7350
▁ezt 7351
▁zato 7352
▁могу 7353
▁ktorá 7354
θέ 7355
▁nared 7356
ére 7357
ikka 7358
▁ats 7359
▁chiar 7360
▁poate 7361
▁Eh 7362
▁ach 7363
▁παι 7364
hez 7365
▁πά 7366
▁Sir 7367
▁paz 7368
qas 7369
▁bere 7370
▁diver 7371
ність 7372
▁Pres 7373
▁druh 7374
▁tijd 7375
мата 7376
▁vig 7377
преде 7378
üt 7379
▁vic 7380
amise 7381
▁capac 7382
anu 7383
▁cada 7384
▁sempli 7385
▁alb 7386
▁poco 7387
bij 7388
asse 7389
▁propos 7390
πι 7391
hip 7392
set 7393
etty 7394
▁sir 7395
▁stav 7396
▁tagħha 7397
tia 7398
čné 7399
ivil 7400
▁резу 7401
▁differen 7402
daj 7403
▁fue 7404
▁było 7405
▁produk 7406
▁uporab 7407
γε 7408
hout 7409
oses 7410
▁Uni 7411
▁sedan 7412
ντα 7413
των 7414
▁art 7415
▁impl 7416
▁centr 7417
ationen 7418
▁fö 7419
iven 7420
▁može 7421
eln 7422
roll 7423
▁rat 7424
телно 7425
▁twenty 7426
kod 7427
▁înc 7428
▁Face 7429
▁sport 7430
▁something 7431
isas 7432
unde 7433
▁κυ 7434
▁esp 7435
▁нужно 7436
▁викори 7437
mt 7438
▁fos 7439
▁maks 7440
▁lá 7441
unta 7442
érie 7443
рат 7444
▁úl 7445
▁day 7446
▁inde 7447
▁midagi 7448
ßen 7449
ának 7450
▁bev 7451
нан 7452
▁tika 7453
▁Kol 7454
▁rapp 7455
▁Univers 7456
▁opravdu 7457
fl 7458
аа 7459
уу 7460
aix 7461
лата 7462
▁imm 7463
▁Tako 7464
▁ihre 7465
ible 7466
▁Dit 7467
▁Las 7468
▁atât 7469
xu 7470
йй 7471
▁trochu 7472
jä 7473
▁міс 7474
▁Okay 7475
kuš 7476
nica 7477
▁fung 7478
▁lucru 7479
▁vaš 7480
ef 7481
ÓÓ 7482
▁Kad 7483
▁mám 7484
▁too 7485
▁tilb 7486
▁допо 7487
▁produkt 7488
æg 7489
▁hin 7490
▁rav 7491
▁sagde 7492
▁YouTube 7493
âr 7494
вал 7495
utoč 7496
▁būs 7497
▁lju 7498
▁nin 7499
знача 7500
úú 7501
¿¿¿¿ 7502
▁zeg 7503
eny 7504
geb 7505
xim 7506
цій 7507
ival 7508
tttt 7509
ális 7510
▁Lab 7511
▁aquí 7512
▁pokud 7513
▁online 7514
ваме 7515
мага 7516
▁Iżda 7517
▁pozn 7518
▁etwas 7519
▁przed 7520
▁internet 7521
▁ū 7522
▁Є 7523
▁čia 7524
▁bef 7525
orden 7526
▁малко 7527
▁Αν 7528
atro 7529
▁työ 7530
▁tous 7531
dě 7532
φέ 7533
unto 7534
▁Φ 7535
▁май 7536
other 7537
ėė 7538
žno 7539
вих 7540
inės 7541
▁wit 7542
inder 7543
▁wara 7544
drig 7545
▁bih 7546
▁aici 7547
▁tört 7548
▁ця 7549
коло 7550
▁áno 7551
▁követ 7552
▁europe 7553
νν 7554
ņēm 7555
γου 7556
▁Pri 7557
▁rah 7558
▁klas 7559
▁quar 7560
▁εκεί 7561
lichen 7562
іі 7563
▁autor 7564
▁elektr 7565
ům 7566
▁uw 7567
▁até 7568
üh 7569
oms 7570
rio 7571
чита 7572
▁torn 7573
▁heidän 7574
ré 7575
▁Unter 7576
▁favor 7577
▁kasut 7578
▁years 7579
endre 7580
▁tehn 7581
▁puede 7582
τώ 7583
▁ки 7584
▁gewoon 7585
otu 7586
ited 7587
▁issa 7588
▁dieser 7589
nt 7590
ulo 7591
elem 7592
▁idő 7593
▁jav 7594
▁При 7595
▁incl 7596
▁tant 7597
▁vrlo 7598
▁mille 7599
▁quindi 7600
χι 7601
enz 7602
ids 7603
▁yhte 7604
ciu 7605
▁Ra 7606
ateľ 7607
idel 7608
▁jista 7609
▁velik 7610
дже 7611
▁Sz 7612
▁μά 7613
▁bola 7614
▁bend 7615
▁qualc 7616
▁послед 7617
▁Ol 7618
кото 7619
стори 7620
ėk 7621
ůů 7622
лей 7623
▁zei 7624
▁făcut 7625
▁ponieważ 7626
wor 7627
вят 7628
▁σαν 7629
▁godt 7630
▁institu 7631
ogle 7632
▁coś 7633
▁сти 7634
▁fejn 7635
▁í 7636
ási 7637
▁UE 7638
▁trav 7639
▁oameni 7640
▁πράγμα 7641
rel 7642
▁ασ 7643
endant 7644
▁empres 7645
vie 7646
▁бі 7647
▁arg 7648
▁mud 7649
▁sob 7650
▁spole 7651
αα 7652
ový 7653
▁Oui 7654
aty 7655
pek 7656
inas 7657
indo 7658
лися 7659
▁dik 7660
ewwel 7661
▁Teraz 7662
▁zoals 7663
▁kuidas 7664
arm 7665
чко 7666
▁folk 7667
▁kunt 7668
inc 7669
ální 7670
оооо 7671
▁põh 7672
vert 7673
▁popul 7674
▁этого 7675
▁utiliz 7676
cil 7677
plu 7678
▁où 7679
oria 7680
▁jiġ 7681
-- 7682
ždy 7683
isem 7684
▁itt 7685
▁kro 7686
AAAAAAAA 7687
čí 7688
wać 7689
ħħar 7690
▁tvr 7691
▁mitte 7692
▁stále 7693
ádz 7694
kken 7695
▁Dat 7696
▁ots 7697
▁mnog 7698
▁rich 7699
lement 7700
edy 7701
ring 7702
▁Engl 7703
▁menos 7704
sä 7705
▁sle 7706
▁wid 7707
▁сле 7708
rze 7709
šta 7710
форма 7711
▁region 7712
▁сре 7713
▁dois 7714
▁pasa 7715
▁dizer 7716
▁temps 7717
inio 7718
▁Tar 7719
heder 7720
жливо 7721
▁diss 7722
▁použ 7723
▁šeit 7724
▁нача 7725
ātad 7726
▁year 7727
λογ 7728
unn 7729
anut 7730
ôsob 7731
▁jur 7732
▁mio 7733
▁mów 7734
▁vän 7735
▁Zeit 7736
▁víte 7737
▁direc 7738
▁waħda 7739
▁sellest 7740
▁dess 7741
▁estar 7742
issä 7743
▁jid 7744
▁потому 7745
▁използва 7746
ieb 7747
lož 7748
▁яка 7749
▁procent 7750
ång 7751
IIII 7752
ască 7753
▁bla 7754
▁pid 7755
▁colle 7756
▁European 7757
ью 7758
▁sf 7759
udzi 7760
▁kup 7761
пъл 7762
▁ph 7763
▁нав 7764
▁Са 7765
▁ill 7766
▁üle 7767
▁себе 7768
▁nadal 7769
omm 7770
fici 7771
▁тук 7772
▁West 7773
accord 7774
▁maail 7775
▁Finnish 7776
нете 7777
▁має 7778
▁hlav 7779
▁наистина 7780
▁až 7781
mist 7782
ματο 7783
cle 7784
kyt 7785
▁πρώ 7786
▁oħra 7787
▁będzie 7788
iją 7789
▁bur 7790
▁lad 7791
▁nors 7792
▁davvero 7793
acă 7794
timo 7795
▁кри 7796
chaft 7797
▁brit 7798
▁lejn 7799
τεύ 7800
▁Sí 7801
▁Ty 7802
μένη 7803
▁систе 7804
stå 7805
▁ihn 7806
▁fast 7807
▁kaks 7808
▁toen 7809
▁свої 7810
▁politik 7811
oke 7812
▁ла 7813
inta 7814
▁ora 7815
вести 7816
▁niečo 7817
▁seine 7818
▁sitten 7819
čit 7820
liet 7821
vest 7822
itter 7823
zioni 7824
▁Rich 7825
ėte 7826
σκε 7827
▁Дж 7828
▁sla 7829
▁apoi 7830
▁проду 7831
шь 7832
▁dzi 7833
▁более 7834
▁financi 7835
χει 7836
▁живо 7837
▁külön 7838
нем 7839
лося 7840
▁žin 7841
liche 7842
▁urmă 7843
rs 7844
kien 7845
rawdę 7846
жде 7847
▁tý 7848
inga 7849
▁dve 7850
βά 7851
imų 7852
▁Sì 7853
ches 7854
▁mysl 7855
pportun 7856
▁aldrig 7857
тре 7858
nici 7859
▁тра 7860
▁besz 7861
▁obchod 7862
къ 7863
▁ży 7864
чна 7865
▁ps 7866
▁nue 7867
iausi 7868
▁polí 7869
ajt 7870
cel 7871
▁Ро 7872
book 7873
▁Aus 7874
▁toga 7875
▁commen 7876
▁partic 7877
uen 7878
iejs 7879
endes 7880
▁fall 7881
▁great 7882
roš 7883
σια 7884
erta 7885
▁alleen 7886
лом 7887
vous 7888
▁Pal 7889
▁Pos 7890
▁gol 7891
▁спе 7892
▁Brit 7893
▁slut 7894
eds 7895
škai 7896
▁anc 7897
▁Úgy 7898
▁том 7899
▁perf 7900
▁Tātad 7901
йо 7902
▁head 7903
▁every 7904
вала 7905
▁Czy 7906
▁juh 7907
▁rak 7908
▁ceva 7909
▁andre 7910
ρκ 7911
iend 7912
▁μικ 7913
▁kraj 7914
▁Dakle 7915
▁ακόμα 7916
rip 7917
▁Тепер 7918
▁zah 7919
arijiet 7920
ęd 7921
aħħar 7922
wią 7923
ége 7924
йти 7925
▁була 7926
▁unser 7927
▁before 7928
▁tajjeb 7929
▁wsp 7930
▁esmu 7931
▁teha 7932
uka 7933
▁hr 7934
skih 7935
▁pois 7936
▁sred 7937
▁ис 7938
iens 7939
▁uděl 7940
▁mucho 7941
▁sehen 7942
▁vamos 7943
μμ 7944
enu 7945
ško 7946
роят 7947
▁Jūs 7948
▁αρχ 7949
▁neid 7950
▁nevar 7951
▁volta 7952
▁между 7953
gio 7954
rent 7955
tivo 7956
ville 7957
▁projek 7958
dej 7959
wad 7960
▁sì 7961
▁зав 7962
under 7963
▁Como 7964
▁text 7965
▁vedno 7966
▁κάνει 7967
зно 7968
▁nal 7969
шение 7970
▁tehd 7971
▁vaat 7972
▁state 7973
▁tikrųjų 7974
ící 7975
▁mj 7976
enea 7977
▁još 7978
▁zob 7979
▁тру 7980
▁intr 7981
▁agora 7982
χα 7983
lek 7984
ять 7985
вете 7986
▁qal 7987
▁jaut 7988
▁guard 7989
▁wkoll 7990
erk 7991
rik 7992
▁lø 7993
вого 7994
▁авто 7995
▁mesmo 7996
▁veste 7997
род 7998
▁rik 7999
atter 8000
íí 8001
ago 8002
▁Со 8003
▁Dur 8004
▁Stre 8005
▁note 8006
▁aussi 8007
▁tieto 8008
▁parlament 8009
ox 8010
viz 8011
кон 8012
stva 8013
▁hovor 8014
▁någon 8015
στά 8016
erte 8017
ivad 8018
kých 8019
▁както 8020
ope 8021
own 8022
äch 8023
▁Го 8024
itev 8025
▁fic 8026
iendo 8027
▁seis 8028
jorde 8029
▁sagte 8030
▁virkelig 8031
žas 8032
тро 8033
като 8034
▁оби 8035
ėd 8036
kke 8037
сна 8038
▁pul 8039
щу 8040
θρω 8041
▁jä 8042
itik 8043
▁band 8044
▁blij 8045
▁орга 8046
ús 8047
фі 8048
ból 8049
yed 8050
otto 8051
▁fak 8052
▁fors 8053
yg 8054
вой 8055
▁mlad 8056
▁rész 8057
▁szem 8058
ването 8059
▁spolo 8060
ħt 8061
pil 8062
▁Str 8063
▁glas 8064
▁nada 8065
▁povedal 8066
ês 8067
edes 8068
▁lucr 8069
▁služ 8070
▁omdat 8071
▁správ 8072
▁Naj 8073
▁Sen 8074
▁tiempo 8075
▁ano 8076
▁labi 8077
desmit 8078
чо 8079
▁mű 8080
hold 8081
oman 8082
uren 8083
šana 8084
▁тро 8085
emaal 8086
▁många 8087
▁njegov 8088
▁От 8089
▁лу 8090
iness 8091
▁Добре 8092
▁respons 8093
raž 8094
▁Een 8095
▁Imma 8096
▁govor 8097
adt 8098
ināj 8099
▁ici 8100
туа 8101
▁ću 8102
▁mem 8103
▁puh 8104
▁пар 8105
▁politi 8106
ület 8107
μένα 8108
▁web 8109
ingu 8110
▁Hol 8111
▁Rus 8112
▁lop 8113
▁rol 8114
▁nėra 8115
pal 8116
qui 8117
itse 8118
jeti 8119
▁bár 8120
▁mora 8121
▁being 8122
▁translation 8123
зни 8124
▁mär 8125
▁pamat 8126
cc 8127
gev 8128
ható 8129
isko 8130
ките 8131
▁Fin 8132
▁signific 8133
dá 8134
qt 8135
ect 8136
▁Sal 8137
▁jul 8138
▁нико 8139
▁друго 8140
▁bolj 8141
διά 8142
ijek 8143
manto 8144
apa 8145
ómo 8146
чите 8147
▁jetzt 8148
rou 8149
ices 8150
▁Nii 8151
▁eivät 8152
▁kater 8153
bir 8154
tab 8155
τεί 8156
лове 8157
▁ува 8158
▁cest 8159
▁nogle 8160
▁različ 8161
рь 8162
спе 8163
erde 8164
ying 8165
▁игра 8166
▁todas 8167
ős 8168
▁vē 8169
μαστε 8170
olg 8171
▁War 8172
▁Wie 8173
▁děl 8174
▁ton 8175
▁sitt 8176
▁medic 8177
▁tagasi 8178
ħu 8179
ιε 8180
глежда 8181
тім 8182
▁mė 8183
▁γε 8184
ieve 8185
nisk 8186
▁tím 8187
лення 8188
▁Port 8189
▁keine 8190
▁Ges 8191
▁rov 8192
oliko 8193
▁bliver 8194
cos 8195
▁θε 8196
ises 8197
▁müs 8198
▁pasak 8199
elikult 8200
▁Hon 8201
▁Let 8202
▁Willi 8203
▁skute 8204
▁vasta 8205
▁λέ 8206
▁Nap 8207
ienia 8208
εία 8209
ван 8210
▁aika 8211
▁olid 8212
▁maken 8213
▁nombre 8214
ług 8215
дар 8216
пера 8217
▁sun 8218
▁пър 8219
▁anim 8220
▁mali 8221
▁onde 8222
▁posta 8223
▁rzeczy 8224
emy 8225
▁εγ 8226
pués 8227
лось 8228
▁dzī 8229
▁ćemo 8230
▁прода 8231
▁standard 8232
▁потрібно 8233
amm 8234
ffen 8235
viet 8236
ujeme 8237
▁radi 8238
κά 8239
atre 8240
andid 8241
▁sama 8242
▁tend 8243
▁def 8244
▁обе 8245
ieden 8246
▁podr 8247
▁appro 8248
ways 8249
▁hak 8250
▁gyven 8251
σιμοποι 8252
▁apm 8253
▁own 8254
▁tämän 8255
▁postav 8256
éz 8257
stan 8258
țion 8259
▁qué 8260
▁Olen 8261
▁după 8262
▁kall 8263
▁tunn 8264
▁skutoč 8265
kao 8266
▁Fr 8267
▁uk 8268
ogen 8269
▁top 8270
▁clar 8271
▁anderen 8272
▁element 8273
ieg 8274
éné 8275
▁Ва 8276
▁voj 8277
iausiai 8278
gem 8279
jus 8280
sioon 8281
▁daar 8282
▁help 8283
▁γιατί 8284
▁asemenea 8285
ows 8286
▁сп 8287
▁stre 8288
▁zdaj 8289
▁volna 8290
▁daugiau 8291
buj 8292
▁uni 8293
νεται 8294
▁puol 8295
gre 8296
▁дея 8297
ativa 8298
▁later 8299
ulta 8300
▁Kyllä 8301
▁klaus 8302
▁miejs 8303
▁знаєте 8304
▁ν 8305
ħaj 8306
ător 8307
щност 8308
▁besch 8309
ħor 8310
▁nič 8311
▁реа 8312
▁anden 8313
▁things 8314
▁predstav 8315
στό 8316
▁Τα 8317
acji 8318
bbli 8319
čan 8320
ńst 8321
зви 8322
▁eb 8323
нови 8324
▁viv 8325
▁esse 8326
▁komun 8327
äd 8328
ély 8329
čil 8330
▁обо 8331
▁water 8332
▁unsere 8333
▁typ 8334
ových 8335
▁Kuid 8336
▁pala 8337
idente 8338
▁están 8339
▁olisi 8340
orej 8341
unut 8342
aktar 8343
▁tová 8344
▁μετά 8345
▁pela 8346
▁kapcs 8347
▁' 8348
ження 8349
▁päiv 8350
žeme 8351
▁Sel 8352
▁něk 8353
▁fois 8354
stup 8355
ħabba 8356
▁telj 8357
▁vari 8358
▁vastu 8359
éri 8360
▁cose 8361
▁νέ 8362
elta 8363
▁Jap 8364
▁fej 8365
▁jit 8366
▁clas 8367
asid 8368
ното 8369
▁Wat 8370
▁své 8371
▁день 8372
▁diesem 8373
▁dove 8374
▁pelo 8375
▁never 8376
▁premi 8377
▁aki 8378
acija 8379
▁Hall 8380
▁robi 8381
▁gesch 8382
▁gjorde 8383
icos 8384
τικέ 8385
▁ese 8386
▁наше 8387
aden 8388
alne 8389
ších 8390
лень 8391
▁hran 8392
▁вече 8393
▁ahora 8394
▁sistema 8395
seen 8396
ligen 8397
▁Para 8398
▁dollar 8399
atos 8400
▁opp 8401
ности 8402
▁poch 8403
ква 8404
▁Tra 8405
▁maz 8406
▁sada 8407
▁инте 8408
δί 8409
▁kri 8410
▁old 8411
▁suk 8412
▁igaz 8413
▁assim 8414
▁jelent 8415
pel 8416
дра 8417
▁Net 8418
▁tilbage 8419
aid 8420
▁næ 8421
sled 8422
▁tog 8423
▁тем 8424
▁viol 8425
▁mundo 8426
▁tāpēc 8427
вительно 8428
ėje 8429
▁Cam 8430
▁rit 8431
icion 8432
▁press 8433
▁puțin 8434
▁Menschen 8435
▁rast 8436
▁nunca 8437
▁sever 8438
▁wiesz 8439
ozaj 8440
ível 8441
▁kér 8442
▁Star 8443
▁bank 8444
▁spun 8445
▁повер 8446
▁означа 8447
▁свою 8448
▁contro 8449
hin 8450
▁cab 8451
▁naozaj 8452
▁dí 8453
▁decis 8454
▁tudod 8455
▁продъл 8456
ssz 8457
nice 8458
ross 8459
▁aps 8460
amine 8461
emmän 8462
▁acho 8463
▁arba 8464
▁hang 8465
▁sr 8466
istu 8467
▁kiek 8468
▁одно 8469
▁några 8470
▁saada 8471
▁altern 8472
eko 8473
zon 8474
alta 8475
omet 8476
▁Jeśli 8477
▁begin 8478
ikus 8479
rukt 8480
▁Ben 8481
▁Van 8482
née 8483
čně 8484
▁gut 8485
▁ihmis 8486
▁zrobi 8487
▁original 8488
umb 8489
▁Ye 8490
ased 8491
zion 8492
▁cet 8493
▁czę 8494
▁σου 8495
▁aast 8496
▁posled 8497
χαν 8498
isiä 8499
▁lige 8500
▁máme 8501
▁tiež 8502
▁posit 8503
▁todella 8504
▁чув 8505
▁anal 8506
▁esam 8507
▁resta 8508
fil 8509
rei 8510
bild 8511
льта 8512
anska 8513
▁mnie 8514
▁sistem 8515
ög 8516
▁аз 8517
▁хм 8518
▁ros 8519
taient 8520
con 8521
прос 8522
▁dif 8523
▁Zato 8524
▁hyvä 8525
▁части 8526
nat 8527
oin 8528
▁lek 8529
amais 8530
▁Euró 8531
▁model 8532
▁nieko 8533
▁tiene 8534
▁iż 8535
▁šk 8536
akter 8537
eller 8538
▁trou 8539
▁mindig 8540
▁wissen 8541
▁χρησιμοποι 8542
▁lite 8543
▁oblasti 8544
irk 8545
šet 8546
▁Па 8547
ėjau 8548
änder 8549
▁kalb 8550
▁suas 8551
būt 8552
ság 8553
▁paci 8554
▁nastav 8555
bed 8556
ruk 8557
διο 8558
▁jgħ 8559
▁подо 8560
ningar 8561
пы 8562
▁îm 8563
▁teie 8564
nil 8565
owi 8566
▁naf 8567
▁pár 8568
цията 8569
▁five 8570
▁οικο 8571
▁Gesch 8572
▁ktorí 8573
▁nějak 8574
▁tarko 8575
▁direct 8576
▁Cro 8577
▁anos 8578
▁chang 8579
▁kapit 8580
▁програ 8581
iała 8582
▁success 8583
▁naprawdę 8584
▁åt 8585
▁ша 8586
oren 8587
ries 8588
čnost 8589
▁kull 8590
▁life 8591
▁зали 8592
▁tehdä 8593
ное 8594
нок 8595
ensä 8596
znam 8597
▁kolm 8598
ader 8599
rī 8600
ιλ 8601
▁вз 8602
▁Kat 8603
▁niż 8604
▁vit 8605
▁наш 8606
▁prik 8607
лни 8608
ient 8609
tiin 8610
ůsob 8611
▁abb 8612
▁decir 8613
▁sulla 8614
▁valst 8615
сло 8616
bles 8617
▁App 8618
▁pogled 8619
▁zurück 8620
χο 8621
iken 8622
▁lors 8623
▁mane 8624
▁veľa 8625
▁jedno 8626
ък 8627
сен 8628
hány 8629
ният 8630
▁Vor 8631
▁aud 8632
▁кли 8633
▁bran 8634
▁Mac 8635
▁sko 8636
▁país 8637
▁blive 8638
▁kuten 8639
▁mejor 8640
▁varētu 8641
▁hå 8642
▁weg 8643
▁этот 8644
▁cosas 8645
iseen 8646
▁child 8647
▁estaba 8648
ără 8649
inka 8650
▁School 8651
ged 8652
ário 8653
ystem 8654
daw 8655
▁vár 8656
▁colo 8657
▁tikrai 8658
γω 8659
omi 8660
τών 8661
atok 8662
esed 8663
▁priz 8664
▁zelf 8665
cza 8666
jena 8667
▁How 8668
▁boj 8669
tavat 8670
▁allt 8671
▁mennes 8672
▁odgovor 8673
oja 8674
сите 8675
▁ran 8676
▁бли 8677
▁pati 8678
▁τώρα 8679
▁keres 8680
▁Εν 8681
yttä 8682
▁kys 8683
▁leid 8684
▁Ρ 8685
ogo 8686
кли 8687
dien 8688
▁noti 8689
▁parl 8690
▁extra 8691
▁pomoc 8692
▁todėl 8693
▁especi 8694
▁repres 8695
▁general 8696
ža 8697
eles 8698
▁Vis 8699
▁dij 8700
▁iem 8701
▁nic 8702
▁смо 8703
▁coun 8704
▁zach 8705
ninger 8706
koj 8707
▁chod 8708
▁indust 8709
stat 8710
▁vou 8711
zenia 8712
▁byli 8713
▁våra 8714
▁Facebook 8715
κή 8716
zed 8717
▁Ще 8718
ific 8719
▁nus 8720
▁zac 8721
▁svoju 8722
тем 8723
шим 8724
imus 8725
ność 8726
oney 8727
▁bag 8728
▁obr 8729
▁weil 8730
▁podpor 8731
ζί 8732
imis 8733
erent 8734
вайте 8735
▁явля 8736
▁pärast 8737
▁Вы 8738
▁След 8739
χω 8740
itus 8741
ments 8742
▁idea 8743
▁člov 8744
▁cle 8745
▁фор 8746
▁instr 8747
▁punto 8748
▁fantast 8749
kap 8750
onių 8751
stra 8752
▁Así 8753
▁гро 8754
uksen 8755
▁tada 8756
▁arvan 8757
kell 8758
ljiv 8759
▁yrit 8760
▁használ 8761
▁ep 8762
tség 8763
▁kum 8764
▁convers 8765
▁eftersom 8766
ках 8767
▁tá 8768
▁Red 8769
▁noz 8770
▁εργ 8771
▁nikdy 8772
▁personas 8773
▁Dž 8774
▁Hen 8775
▁tomu 8776
▁ainda 8777
▁prije 8778
▁normal 8779
▁έχουμε 8780
▁истори 8781
nij 8782
sky 8783
āks 8784
τον 8785
šimt 8786
▁nut 8787
▁δεί 8788
▁prat 8789
▁comer 8790
▁nekoliko 8791
πέ 8792
ριν 8793
▁Съ 8794
нова 8795
▁laat 8796
▁συμβ 8797
▁again 8798
▁nakon 8799
▁coisas 8800
ower 8801
▁enk 8802
▁ieg 8803
▁ancora 8804
▁technolog 8805
asa 8806
▁kost 8807
ők 8808
кою 8809
▁Де 8810
sche 8811
▁Jie 8812
▁ming 8813
▁καθώ 8814
▁ovdje 8815
▁благо 8816
▁maintenant 8817
iċ 8818
alb 8819
siu 8820
üks 8821
čaj 8822
aniu 8823
▁Mil 8824
▁поч 8825
▁sept 8826
▁sido 8827
▁müssen 8828
▁izmanto 8829
▁Ή 8830
išk 8831
kut 8832
▁grad 8833
▁taču 8834
▁voit 8835
▁возможно 8836
ней 8837
▁Ако 8838
▁saat 8839
▁vent 8840
▁робо 8841
▁încep 8842
▁vagyok 8843
αί 8844
▁бъ 8845
volu 8846
▁Che 8847
▁può 8848
▁għad 8849
▁чове 8850
rz 8851
kaj 8852
nio 8853
đer 8854
eret 8855
▁grup 8856
▁minha 8857
cije 8858
iego 8859
▁két 8860
▁pew 8861
allen 8862
▁škol 8863
▁cambi 8864
▁îl 8865
▁agr 8866
▁każ 8867
▁City 8868
▁хоче 8869
▁Gl 8870
▁jut 8871
▁kép 8872
▁υπάρχει 8873
cr 8874
χν 8875
gon 8876
▁määr 8877
▁össz 8878
ъъ 8879
bok 8880
igu 8881
▁već 8882
▁bomo 8883
ція 8884
▁pin 8885
▁pob 8886
▁lung 8887
▁rekao 8888
kę 8889
czą 8890
gat 8891
taan 8892
ками 8893
▁Bre 8894
▁спа 8895
vek 8896
ślę 8897
δει 8898
iski 8899
▁tež 8900
шения 8901
▁exam 8902
bst 8903
▁ukl 8904
▁konkr 8905
▁würde 8906
▁rohkem 8907
▁spôsob 8908
onto 8909
ules 8910
▁iet 8911
alment 8912
▁desde 8913
ER 8914
ņa 8915
osť 8916
▁gat 8917
▁veik 8918
yes 8919
▁Wa 8920
▁Met 8921
▁соб 8922
▁inne 8923
▁olem 8924
▁mohli 8925
▁rozhod 8926
akin 8927
▁gem 8928
▁ovo 8929
▁αντι 8930
▁progra 8931
▁äh 8932
iegħ 8933
▁cij 8934
▁job 8935
▁Well 8936
▁Op 8937
ming 8938
вате 8939
▁jem 8940
▁τρό 8941
▁оти 8942
▁soit 8943
▁olnud 8944
▁поста 8945
▁mē 8946
jort 8947
▁cad 8948
▁side 8949
▁trebui 8950
ník 8951
▁Hun 8952
▁bec 8953
▁Nach 8954
▁skol 8955
▁которо 8956
nä 8957
endi 8958
▁Dru 8959
▁Vid 8960
▁nüüd 8961
▁prior 8962
▁terror 8963
lí 8964
ýš 8965
cept 8966
orno 8967
tico 8968
▁ens 8969
▁prev 8970
▁tegen 8971
▁finans 8972
zym 8973
▁pă 8974
ismo 8975
▁Bill 8976
▁dokon 8977
▁prieš 8978
▁publi 8979
ěd 8980
žd 8981
mond 8982
ктив 8983
▁Nek 8984
▁budú 8985
▁práv 8986
▁nešto 8987
▁George 8988
▁minist 8989
▁pokrač 8990
.- 8991
țe 8992
ναν 8993
▁Bla 8994
▁Mag 8995
AT 8996
gte 8997
čka 8998
▁мя 8999
лото 9000
▁Hej 9001
atten 9002
▁aver 9003
▁теле 9004
▁drugi 9005
▁viete 9006
νια 9007
▁ос 9008
τηση 9009
▁data 9010
▁vede 9011
▁ellen 9012
▁thing 9013
от 9014
sew 9015
zek 9016
▁ак 9017
▁Nik 9018
▁arriv 9019
AN 9020
uls 9021
▁fy 9022
ając 9023
веде 9024
▁iets 9025
▁noss 9026
рая 9027
▁Ti 9028
▁jõ 9029
ämme 9030
▁кла 9031
▁Aust 9032
▁toți 9033
μού 9034
тни 9035
▁gør 9036
▁gest 9037
▁forsk 9038
▁Mary 9039
▁hyvin 9040
▁machen 9041
ňa 9042
▁Ö 9043
inę 9044
ands 9045
eron 9046
rado 9047
▁īpa 9048
▁gaat 9049
▁metu 9050
▁până 9051
▁tudo 9052
▁Pokud 9053
▁pokaz 9054
ствительно 9055
▁κι 9056
▁mein 9057
▁extre 9058
sej 9059
▁bå 9060
▁jud 9061
ación 9062
▁Isso 9063
▁проце 9064
▁Ι 9065
ček 9066
teur 9067
▁już 9068
▁lak 9069
стову 9070
▁kada 9071
▁trid 9072
▁kunde 9073
yje 9074
ança 9075
etje 9076
▁Flor 9077
▁lado 9078
▁David 9079
▁Quando 9080
▁belang 9081
λυ 9082
kaa 9083
vom 9084
zat 9085
▁Jac 9086
▁Now 9087
▁ier 9088
▁elec 9089
▁atrod 9090
▁avoir 9091
▁imamo 9092
▁pouco 9093
▁without 9094
āc 9095
νού 9096
десь 9097
enten 9098
isiin 9099
▁cerc 9100
▁laten 9101
▁опреде 9102
čio 9103
keen 9104
šo 9105
bou 9106
▁βο 9107
▁ска 9108
▁telefon 9109
▁Ó 9110
▁Ci 9111
oħra 9112
tijd 9113
▁Все 9114
▁pate 9115
▁rodz 9116
▁există 9117
▁jejich 9118
gua 9119
ovu 9120
tien 9121
ullen 9122
UE 9123
▁Av 9124
▁sł 9125
▁Nej 9126
▁vēr 9127
▁dijo 9128
▁teen 9129
halten 9130
▁sagen 9131
▁gennem 9132
▁vedere 9133
õt 9134
єю 9135
nor 9136
vik 9137
zte 9138
ési 9139
▁aik 9140
▁mij 9141
▁pén 9142
▁ďal 9143
hdoll 9144
▁Cons 9145
▁Tačiau 9146
stre 9147
жения 9148
▁őket 9149
▁kvart 9150
▁world 9151
▁själ 9152
▁sätt 9153
▁коро 9154
▁denna 9155
▁prostě 9156
uit 9157
ηση 9158
▁wz 9159
gang 9160
rove 9161
▁Kdy 9162
▁jal 9163
▁voy 9164
▁doma 9165
▁glav 9166
īgu 9167
сни 9168
▁tê 9169
zett 9170
▁bad 9171
▁hil 9172
▁πλη 9173
owych 9174
▁posl 9175
▁terug 9176
oby 9177
zyć 9178
яти 9179
▁Ot 9180
leid 9181
▁Pon 9182
▁gez 9183
acije 9184
▁gled 9185
▁něco 9186
▁position 9187
▁fá 9188
▁Jahr 9189
▁akik 9190
esk 9191
zut 9192
čku 9193
inde 9194
▁När 9195
ammen 9196
ought 9197
▁täyt 9198
воре 9199
▁usp 9200
▁όλα 9201
▁уча 9202
ennes 9203
▁question 9204
▁fit 9205
▁jūsu 9206
▁není 9207
▁відпо 9208
▁тепер 9209
oven 9210
щата 9211
▁dje 9212
▁ext 9213
unden 9214
▁teda 9215
▁znaš 9216
dik 9217
kup 9218
tri 9219
▁Κα 9220
erst 9221
teří 9222
▁Ils 9223
▁jat 9224
▁Samo 9225
▁ette 9226
▁event 9227
▁kteří 9228
▁prostu 9229
▁всичко 9230
▁kontrol 9231
ics 9232
aval 9233
cken 9234
▁нем 9235
azioni 9236
▁viņiem 9237
▁comm 9238
▁zbog 9239
▁nogen 9240
▁iespējams 9241
dig 9242
imp 9243
rast 9244
мите 9245
▁stol 9246
▁спосо 9247
▁використову 9248
ęż 9249
etu 9250
wia 9251
στή 9252
▁vij 9253
▁avez 9254
▁vais 9255
kul 9256
tat 9257
ças 9258
bare 9259
wali 9260
▁Wor 9261
entos 9262
urden 9263
▁είπε 9264
▁veiks 9265
щен 9266
rodu 9267
▁nau 9268
▁poi 9269
▁îna 9270
▁ikun 9271
▁acord 9272
▁zapravo 9273
noj 9274
pois 9275
rais 9276
▁így 9277
▁hozz 9278
▁αρκε 9279
▁individu 9280
emu 9281
erm 9282
iete 9283
біль 9284
▁años 9285
▁prest 9286
dek 9287
fal 9288
▁Ok 9289
arch 9290
ican 9291
▁Tal 9292
▁sut 9293
▁tych 9294
▁vind 9295
▁svojo 9296
▁treba 9297
▁ES 9298
▁βα 9299
ogat 9300
зыва 9301
▁miel 9302
▁хочу 9303
nam 9304
ote 9305
wet 9306
тру 9307
цію 9308
▁či 9309
стью 9310
▁ніж 9311
ческо 9312
▁slag 9313
▁cresc 9314
ūk 9315
θυ 9316
ць 9317
cov 9318
fte 9319
▁Ба 9320
ärke 9321
▁nač 9322
▁oleme 9323
▁olivat 9324
arde 9325
▁moja 9326
▁vand 9327
▁verw 9328
▁viis 9329
▁позво 9330
arr 9331
imm 9332
iedy 9333
▁Mart 9334
▁Park 9335
▁Если 9336
ationer 9337
сколько 9338
▁school 9339
▁Ве 9340
omat 9341
гапу 9342
▁ove 9343
▁Тому 9344
bud 9345
práv 9346
unda 9347
▁где 9348
frast 9349
▁dipl 9350
▁esim 9351
▁arbej 9352
▁liter 9353
▁szeretné 9354
šel 9355
▁dalla 9356
jeć 9357
▁ea 9358
▁ръ 9359
▁Ang 9360
▁jossa 9361
▁можем 9362
ľad 9363
сом 9364
стю 9365
▁ζω 9366
▁Keď 9367
▁nit 9368
▁tās 9369
▁vem 9370
▁seem 9371
▁team 9372
▁jonka 9373
▁temper 9374
AS 9375
sl 9376
nite 9377
▁mim 9378
▁Dacă 9379
▁avea 9380
terior 9381
▁joten 9382
nja 9383
▁ay 9384
ätta 9385
▁Има 9386
▁Eles 9387
kligen 9388
▁parem 9389
▁працю 9390
đen 9391
▁зу 9392
aksi 9393
▁vaid 9394
ността 9395
▁άνθρω 9396
жны 9397
кие 9398
▁ιδ 9399
otas 9400
piel 9401
▁Jei 9402
ating 9403
▁Dabar 9404
▁rapid 9405
▁Google 9406
▁žinote 9407
▁concent 9408
eth 9409
▁Aš 9410
тири 9411
▁cie 9412
▁fosse 9413
ξι 9414
aro 9415
edi 9416
ffe 9417
ettu 9418
ství 9419
тата 9420
▁keh 9421
▁sym 9422
▁опи 9423
▁nato 9424
▁обла 9425
▁dalyk 9426
▁viens 9427
did 9428
sib 9429
▁rim 9430
▁gens 9431
▁tome 9432
▁viena 9433
▁напри 9434
▁trimestre 9435
▁Ano 9436
essen 9437
сказа 9438
▁veux 9439
▁Tāpēc 9440
▁wieder 9441
EN 9442
vala 9443
▁sac 9444
▁тут 9445
▁dolgo 9446
▁laikā 9447
▁weiter 9448
cé 9449
vēr 9450
wood 9451
▁Sho 9452
▁dere 9453
▁gang 9454
▁solu 9455
▁experien 9456
▁principal 9457
pir 9458
inar 9459
▁kij 9460
jours 9461
▁otáz 9462
▁pomo 9463
▁princi 9464
▁għandhom 9465
▁different 9466
▁enf 9467
▁ква 9468
▁dolg 9469
▁tagad 9470
bec 9471
κρι 9472
▁Ju 9473
nejn 9474
▁sais 9475
▁наших 9476
▁melhor 9477
▁verkligen 9478
aħ 9479
ual 9480
▁näh 9481
▁oko 9482
▁Viņa 9483
▁utan 9484
▁znaj 9485
▁nostro 9486
▁малень 9487
▁gondolom 9488
▁fapt 9489
▁beste 9490
óóóóóóóó 9491
.' 9492
κει 9493
▁Бе 9494
▁ott 9495
▁Prin 9496
говори 9497
▁jedna 9498
▁после 9499
▁történ 9500
▁некото 9501
▁Ba 9502
▁Pl 9503
▁vah 9504
gas 9505
йде 9506
▁rum 9507
▁halu 9508
▁πολλ 9509
AR 9510
ьому 9511
▁Paul 9512
▁хора 9513
▁monde 9514
▁oportun 9515
dés 9516
zit 9517
älle 9518
ħobb 9519
▁ανθ 9520
▁dawk 9521
▁high 9522
▁seal 9523
elleen 9524
▁viele 9525
▁vī 9526
ichen 9527
▁start 9528
▁contribu 9529
▁toujours 9530
bas 9531
ims 9532
вни 9533
зова 9534
▁gaz 9535
▁nje 9536
▁saa 9537
▁wal 9538
▁тях 9539
роятно 9540
▁kuiten 9541
▁võimal 9542
,, 9543
mé 9544
▁Fe 9545
jeni 9546
▁name 9547
mě 9548
йн 9549
єш 9550
jeg 9551
ről 9552
sią 9553
ране 9554
чити 9555
▁bew 9556
▁nekā 9557
▁Якщо 9558
▁dabar 9559
▁control 9560
▁направи 9561
φά 9562
žem 9563
▁Με 9564
ardo 9565
ussa 9566
▁сер 9567
▁încă 9568
▁która 9569
▁wurden 9570
▁għandna 9571
?- 9572
ях 9573
▁Bl 9574
▁Fa 9575
нути 9576
▁pies 9577
▁foram 9578
▁подоб 9579
▁around 9580
▁челове 9581
rä 9582
auk 9583
šla 9584
ährend 9585
▁могат 9586
imiento 9587
árom 9588
ítás 9589
▁нет 9590
▁лише 9591
▁dispon 9592
▁første 9593
▁palīdz 9594
▁människ 9595
▁действительно 9596
oru 9597
▁wys 9598
▁bord 9599
▁vald 9600
▁choses 9601
кры 9602
▁Ji 9603
▁šķ 9604
tera 9605
▁első 9606
▁minä 9607
owever 9608
▁eerste 9609
▁poli 9610
▁znam 9611
▁řekl 9612
program 9613
▁beszél 9614
▁tagħmel 9615
▁Ά 9616
dra 9617
inį 9618
ītu 9619
кую 9620
otti 9621
rede 9622
чили 9623
▁nok 9624
▁vār 9625
▁rele 9626
▁encore 9627
▁verdade 9628
▁Tw 9629
▁zus 9630
▁caso 9631
▁elég 9632
▁found 9633
ωωωωωωωω 9634
▁szerint 9635
▁ψ 9636
uwe 9637
дні 9638
ween 9639
логи 9640
▁yhd 9641
▁štai 9642
▁popol 9643
▁inclus 9644
▁Tä 9645
ikas 9646
čius 9647
▁воз 9648
▁muss 9649
▁puis 9650
▁sett 9651
▁meille 9652
▁полити 9653
▁mahdoll 9654
▁Ap 9655
usto 9656
▁έναν 9657
▁godine 9658
▁zaradi 9659
żej 9660
▁ār 9661
▁Era 9662
▁Teh 9663
▁wen 9664
▁olul 9665
uh 9666
inos 9667
▁kel 9668
▁mener 9669
▁Ħ 9670
ének 9671
коли 9672
▁ciò 9673
▁guer 9674
ték 9675
слу 9676
ikat 9677
▁keer 9678
▁used 9679
▁σημαν 9680
ites 9681
šanās 9682
▁vita 9683
▁deset 9684
▁inclu 9685
▁provo 9686
▁quelque 9687
jene 9688
szág 9689
▁flu 9690
▁druž 9691
▁meil 9692
▁συνέχ 9693
▁biztos 9694
▁mbagħad 9695
ieť 9696
uru 9697
udar 9698
▁Ker 9699
▁supr 9700
▁vždy 9701
▁допомо 9702
▁результа 9703
ējo 9704
emen 9705
erar 9706
лась 9707
▁fon 9708
▁love 9709
▁aller 9710
▁jeste 9711
▁докато 9712
▁administ 9713
cus 9714
блю 9715
▁Hi 9716
▁là 9717
agen 9718
pers 9719
μενο 9720
▁kla 9721
appen 9722
▁napr 9723
▁klient 9724
▁Var 9725
▁voz 9726
▁Elle 9727
▁bast 9728
▁krij 9729
▁special 9730
īts 9731
▁πί 9732
bros 9733
gere 9734
▁Ovo 9735
▁спи 9736
▁deve 9737
▁spra 9738
рю 9739
вши 9740
ене 9741
стта 9742
▁esa 9743
szerű 9744
▁anni 9745
▁grat 9746
▁koos 9747
▁spel 9748
▁verb 9749
▁voir 9750
jih 9751
нів 9752
▁bør 9753
▁domu 9754
▁znate 9755
▁zí 9756
aven 9757
ware 9758
▁Nos 9759
▁Que 9760
▁fas 9761
ināja 9762
▁mene 9763
▁μαζί 9764
▁draug 9765
▁είμαι 9766
▁amelyek 9767
ads 9768
това 9769
▁hold 9770
▁mitt 9771
asă 9772
ρον 9773
кту 9774
сси 9775
▁gă 9776
fect 9777
tific 9778
▁sled 9779
▁ξέρετε 9780
edo 9781
jük 9782
▁Come 9783
▁koko 9784
▁decât 9785
▁által 9786
▁respon 9787
tur 9788
▁фак 9789
▁għam 9790
▁konf 9791
▁sare 9792
▁exact 9793
▁peaks 9794
τικότητα 9795
rej 9796
▁хто 9797
▁Yeah 9798
▁próx 9799
▁упра 9800
ovanje 9801
▁някои 9802
▁opportun 9803
▁jūsų 9804
▁pied 9805
▁Colle 9806
▁Union 9807
▁perso 9808
▁compet 9809
▁зробити 9810
▁kto 9811
▁δικ 9812
▁kemm 9813
▁magħ 9814
▁pril 9815
▁tent 9816
▁мисля 9817
íd 9818
ρύ 9819
cen 9820
cky 9821
řej 9822
яза 9823
▁escu 9824
▁minim 9825
▁govern 9826
ből 9827
jos 9828
sio 9829
▁pię 9830
▁ġew 9831
▁máte 9832
▁кіль 9833
▁sempliċ 9834
nī 9835
öz 9836
vær 9837
тор 9838
ável 9839
▁utr 9840
▁arbe 9841
▁lidt 9842
▁munk 9843
▁nepr 9844
▁onda 9845
▁ανθρώ 9846
същност 9847
▁lavoro 9848
bert 9849
▁esi 9850
▁groß 9851
▁koht 9852
▁spod 9853
▁дома 9854
umento 9855
▁spraw 9856
▁sådan 9857
▁visto 9858
▁hvordan 9859
θα 9860
ärt 9861
ряд 9862
prej 9863
мени 9864
нове 9865
▁diz 9866
▁dne 9867
▁обще 9868
▁James 9869
▁sobie 9870
▁USA 9871
▁izv 9872
чення 9873
▁lesz 9874
▁μέρο 9875
▁ahogy 9876
▁bueno 9877
▁materi 9878
▁Й 9879
več 9880
gens 9881
▁lic 9882
▁νομ 9883
▁свя 9884
▁concer 9885
▁години 9886
đa 9887
ilen 9888
▁cik 9889
▁кни 9890
▁vaše 9891
▁Може 9892
▁Одна 9893
▁reikia 9894
zs 9895
θούν 9896
▁vik 9897
ajiem 9898
▁kezd 9899
ký 9900
ěř 9901
ulu 9902
ykl 9903
ellt 9904
yste 9905
▁baz 9906
állal 9907
τάξει 9908
▁musí 9909
oarece 9910
▁migli 9911
▁Questo 9912
▁always 9913
▁Υ 9914
▁жа 9915
▁bod 9916
▁συμ 9917
▁цей 9918
chien 9919
iteit 9920
▁необ 9921
▁щось 9922
▁pouvez 9923
zw 9924
áh 9925
cit 9926
wał 9927
▁rū 9928
itaj 9929
neet 9930
▁One 9931
▁kah 9932
▁tec 9933
▁jogħ 9934
▁nome 9935
▁demon 9936
▁potem 9937
IS 9938
▁Ни 9939
дово 9940
▁Lou 9941
▁Res 9942
▁kõr 9943
▁ging 9944
▁começ 9945
▁περιο 9946
▁energi 9947
▁dě 9948
ikan 9949
unas 9950
▁Una 9951
▁yks 9952
put 9953
▁alm 9954
▁joh 9955
▁sov 9956
▁elke 9957
▁facil 9958
pti 9959
ņas 9960
etto 9961
itten 9962
▁Sono 9963
▁diez 9964
▁μο 9965
erer 9966
skim 9967
▁kaut 9968
▁havia 9969
▁relig 9970
▁blevet 9971
bě 9972
рон 9973
atal 9974
nymi 9975
вета 9976
▁Pas 9977
ansko 9978
▁trat 9979
φε 9980
oty 9981
дни 9982
шли 9983
osan 9984
otte 9985
ères 9986
лася 9987
▁Meg 9988
heter 9989
simmä 9990
▁darba 9991
▁integr 9992
▁qualcosa 9993
aku 9994
āti 9995
▁сі 9996
▁zor 9997
ingas 9998
▁abych 9999
▁inizi 10000
▁första 10001
▁grav 10002
▁Joten 10003
▁Manau 10004
▁proiz 10005
▁Bob 10006
▁geh 10007
▁tão 10008
etaan 10009
▁nimi 10010
▁član 10011
▁degli 10012
▁зроби 10013
лки 10014
avno 10015
imen 10016
▁Air 10017
ommen 10018
▁jour 10019
▁europ 10020
▁været 10021
ize 10022
ješ 10023
tier 10024
▁Hvis 10025
▁ilyen 10026
τια 10027
реш 10028
▁Kā 10029
▁äl 10030
chan 10031
▁nāk 10032
ários 10033
▁Land 10034
▁szab 10035
▁gente 10036
лите 10037
▁Ela 10038
▁Pens 10039
▁była 10040
▁fine 10041
▁boste 10042
▁parce 10043
▁spune 10044
., 10045
kami 10046
води 10047
entro 10048
zenie 10049
owanie 10050
▁famili 10051
▁kapcsolat 10052
elde 10053
uose 10054
▁пет 10055
▁vsak 10056
▁продол 10057
сем 10058
это 10059
essi 10060
▁gab 10061
▁obl 10062
▁juos 10063
▁nelj 10064
▁mayor 10065
▁nossa 10066
▁prema 10067
▁separ 10068
▁teica 10069
▁commer 10070
▁interna 10071
▁noastre 10072
AL 10073
kw 10074
ικού 10075
кими 10076
▁jum 10077
edaudz 10078
▁gjort 10079
▁λό 10080
▁ogni 10081
▁billi 10082
▁budou 10083
▁egyik 10084
▁optim 10085
▁viņam 10086
oki 10087
ined 10088
ního 10089
tore 10090
▁tee 10091
▁тър 10092
▁zost 10093
▁бяха 10094
IT 10095
▁fur 10096
▁kog 10097
▁sea 10098
▁reci 10099
▁vjer 10100
▁неза 10101
▁aument 10102
▁ши 10103
akon 10104
▁Art 10105
▁път 10106
▁tegelikult 10107
bero 10108
ieme 10109
iero 10110
▁έτσι 10111
▁пода 10112
▁civil 10113
▁leurs 10114
ôt 10115
ject 10116
teri 10117
▁уже 10118
ativo 10119
▁ajal 10120
▁stro 10121
▁deven 10122
▁αποτε 10123
anj 10124
дов 10125
важа 10126
▁sans 10127
▁κάποιο 10128
▁dokument 10129
ppa 10130
▁Чи 10131
▁ар 10132
kast 10133
οντα 10134
σαμε 10135
▁brī 10136
▁sic 10137
uttaa 10138
▁tých 10139
▁způsob 10140
зне 10141
acij 10142
▁arb 10143
▁více 10144
▁šajā 10145
▁major 10146
▁present 10147
ľko 10148
▁Vir 10149
▁moi 10150
▁мно 10151
▁majd 10152
▁šiek 10153
▁hasta 10154
▁цьому 10155
mir 10156
nout 10157
voor 10158
▁jam 10159
▁lap 10160
▁lei 10161
▁away 10162
▁came 10163
▁lever 10164
▁повин 10165
▁between 10166
▁ю 10167
top 10168
▁rů 10169
arlo 10170
▁hea 10171
▁róż 10172
▁cham 10173
▁mogli 10174
nič 10175
yks 10176
νον 10177
чни 10178
▁kval 10179
▁tilf 10180
adem 10181
ação 10182
gest 10183
▁mys 10184
▁Они 10185
▁дій 10186
esser 10187
istor 10188
κολου 10189
▁kompl 10190
▁точно 10191
öö 10192
auf 10193
▁Ду 10194
мина 10195
▁zwei 10196
▁galite 10197
ikä 10198
▁üh 10199
alej 10200
cios 10201
zeci 10202
▁cru 10203
▁kurā 10204
▁näyt 10205
▁каже 10206
▁Europ 10207
▁aveva 10208
▁držav 10209
▁kunagi 10210
▁människor 10211
▁significa 10212
▁ł 10213
лід 10214
▁із 10215
▁змі 10216
▁ciud 10217
▁jedn 10218
▁stata 10219
▁перед 10220
▁прое 10221
▁qabel 10222
agt 10223
aru 10224
ați 10225
mad 10226
važ 10227
▁έχω 10228
▁мій 10229
▁hjäl 10230
▁insp 10231
▁vrát 10232
▁сега 10233
▁conte 10234
▁gerne 10235
▁miatt 10236
ovanie 10237
▁tovább 10238
▁situation 10239
pär 10240
▁éc 10241
▁Ти 10242
▁сту 10243
▁mass 10244
▁tres 10245
▁veid 10246
nö 10247
žel 10248
стри 10249
▁ded 10250
▁Jekk 10251
▁zast 10252
izione 10253
правді 10254
▁Tehát 10255
▁juste 10256
▁nation 10257
▁stadig 10258
șit 10259
▁πώ 10260
rada 10261
лиза 10262
▁võt 10263
▁кто 10264
▁jogħġ 10265
▁καλύτε 10266
▁enemmän 10267
▁μπορείτε 10268
ânt 10269
чка 10270
▁Dis 10271
▁дан 10272
▁kort 10273
▁kész 10274
▁Trans 10275
▁faktisk 10276
τύ 10277
ējā 10278
▁fok 10279
▁лег 10280
emmin 10281
▁λίγο 10282
▁detto 10283
▁бъдат 10284
▁потім 10285
▁hawnhekk 10286
▁Συ 10287
сить 10288
▁Esto 10289
▁måde 10290
▁Washing 10291
ków 10292
ære 10293
▁νε 10294
▁фо 10295
έρει 10296
▁big 10297
▁ies 10298
▁behö 10299
▁Вони 10300
▁поба 10301
▁aasta 10302
▁autre 10303
▁gerai 10304
▁miest 10305
▁while 10306
▁могут 10307
▁against 10308
zes 10309
▁nú 10310
arja 10311
idge 10312
kező 10313
▁méd 10314
ittaa 10315
▁feel 10316
▁pribli 10317
icamente 10318
▁jistgħu 10319
▁nedaudz 10320
rup 10321
tio 10322
ował 10323
ácie 10324
▁зем 10325
podob 10326
▁bent 10327
▁hebt 10328
▁показа 10329
▁garanti 10330
▁piemēram 10331
emat 10332
itty 10333
▁Тож 10334
▁adev 10335
▁klik 10336
▁verk 10337
▁milit 10338
▁znamen 10339
dob 10340
roč 10341
▁zl 10342
etlen 10343
преки 10344
▁κάθε 10345
▁Saint 10346
▁digit 10347
▁local 10348
ζό 10349
▁Í 10350
vyk 10351
äre 10352
teni 10353
▁yksi 10354
▁China 10355
рави 10356
▁Pla 10357
▁ken 10358
▁изве 10359
▁incre 10360
āla 10361
хід 10362
▁Ur 10363
ărat 10364
▁cómo 10365
▁werk 10366
▁denke 10367
▁motor 10368
▁здесь 10369
▁jamais 10370
kil 10371
ieni 10372
▁sex 10373
▁didn 10374
▁prepar 10375
▁nuestra 10376
▁organis 10377
ihen 10378
▁prit 10379
▁leven 10380
irl 10381
пли 10382
ців 10383
▁tes 10384
forme 10385
▁dana 10386
▁expl 10387
▁foly 10388
▁imam 10389
▁indi 10390
▁една 10391
▁pozor 10392
▁għandu 10393
īk 10394
eka 10395
kab 10396
тей 10397
tage 10398
▁sre 10399
▁trgov 10400
▁върху 10401
▁Tud 10402
▁išs 10403
▁rev 10404
▁šis 10405
ollow 10406
▁mina 10407
istess 10408
▁druge 10409
▁nista 10410
▁povez 10411
Un 10412
üm 10413
mär 10414
uch 10415
ává 10416
▁îi 10417
entre 10418
▁itse 10419
▁mant 10420
▁sanoi 10421
▁steeds 10422
lje 10423
▁dw 10424
ciju 10425
pads 10426
воря 10427
▁Arbe 10428
▁gribu 10429
▁nivel 10430
▁szüks 10431
▁întâm 10432
udes 10433
▁org 10434
tigen 10435
▁Když 10436
▁metų 10437
▁могли 10438
▁najbolj 10439
▁popular 10440
▁mennesker 10441
μω 10442
īst 10443
▁χω 10444
ojat 10445
▁ied 10446
▁klu 10447
▁szcz 10448
▁quello 10449
вые 10450
oter 10451
śnie 10452
▁Cap 10453
▁Lis 10454
▁uud 10455
▁дви 10456
▁нау 10457
▁kasv 10458
▁line 10459
▁commun 10460
▁manier 10461
▁našich 10462
▁момент 10463
ppi 10464
tuu 10465
igos 10466
inius 10467
▁klar 10468
▁megt 10469
▁repu 10470
▁άλλο 10471
▁intel 10472
bus 10473
živ 10474
зумі 10475
▁Afr 10476
▁cau 10477
▁tám 10478
▁why 10479
▁Дже 10480
unque 10481
▁creo 10482
▁åter 10483
▁šest 10484
▁étaient 10485
▁definitiv 10486
▁sw 10487
віть 10488
▁emo 10489
▁чер 10490
iveau 10491
oglio 10492
▁Jack 10493
▁woll 10494
elijke 10495
▁disso 10496
▁obten 10497
▁možete 10498
ať 10499
lica 10500
voja 10501
▁bid 10502
▁trei 10503
▁voll 10504
▁henne 10505
▁influ 10506
amiseks 10507
▁podemos 10508
▁Jim 10509
umėte 10510
▁dopo 10511
jonali 10512
▁deras 10513
▁beetje 10514
▁nostra 10515
tas 10516
ανό 10517
▁algu 10518
▁link 10519
▁went 10520
▁начин 10521
jí 10522
ąd 10523
▁då 10524
▁Из 10525
bira 10526
utus 10527
▁czł 10528
▁neh 10529
▁één 10530
velop 10531
▁Pred 10532
▁kurį 10533
▁ħadd 10534
▁Efter 10535
▁jotta 10536
▁mulle 10537
▁porta 10538
▁tener 10539
▁uzņēm 10540
izzjoni 10541
▁deoarece 10542
rog 10543
υση 10544
ards 10545
lust 10546
▁Ach 10547
▁sty 10548
▁Στη 10549
▁вра 10550
arse 10551
▁õig 10552
▁Αυτ 10553
elser 10554
ienie 10555
odată 10556
ticas 10557
▁στου 10558
▁Angel 10559
▁Micha 10560
▁particular 10561
cks 10562
arda 10563
στεί 10564
▁svi 10565
▁пря 10566
▁mäng 10567
▁perd 10568
▁ľudí 10569
▁podem 10570
▁schim 10571
▁probabil 10572
вых 10573
сят 10574
otov 10575
▁Vol 10576
▁nag 10577
▁halv 10578
▁sute 10579
▁tudom 10580
▁werde 10581
▁življen 10582
entemente 10583
жі 10584
▁Πα 10585
rade 10586
▁ona 10587
▁βρί 10588
▁иде 10589
▁koju 10590
▁mark 10591
▁μεγα 10592
▁сред 10593
ovanja 10594
▁pasir 10595
▁ainult 10596
▁bardziej 10597
▁πράγματα 10598
▁Commission 10599
rus 10600
agem 10601
ften 10602
zelf 10603
▁mort 10604
iecare 10605
▁estado 10606
▁должны 10607
sal 10608
ίνη 10609
▁μπ 10610
ingt 10611
▁gio 10612
▁γνω 10613
▁adop 10614
▁alte 10615
▁къде 10616
▁automat 10617
çon 10618
дня 10619
▁Ov 10620
▁зі 10621
тори 10622
▁mea 10623
▁fick 10624
▁sort 10625
▁élet 10626
▁любо 10627
▁cinco 10628
▁продов 10629
▁discuss 10630
iť 10631
nap 10632
▁πέ 10633
teva 10634
▁opr 10635
▁вся 10636
atele 10637
▁pren 10638
▁attiec 10639
▁ώ 10640
▁σω 10641
alia 10642
▁сла 10643
▁miał 10644
js 10645
ėm 10646
▁py 10647
▁ár 10648
tede 10649
▁Kap 10650
▁bēr 10651
▁avut 10652
▁pagr 10653
▁wiele 10654
lit 10655
▁λε 10656
rang 10657
wiąz 10658
дова 10659
ніше 10660
▁mér 10661
τήσει 10662
прави 10663
▁será 10664
▁trov 10665
▁Сега 10666
▁которая 10667
ené 10668
zar 10669
▁só 10670
ksom 10671
▁fid 10672
▁gema 10673
▁darbo 10674
▁nosso 10675
▁Street 10676
ίσ 10677
γό 10678
пад 10679
▁tü 10680
kker 10681
ține 10682
▁ühe 10683
▁пло 10684
țiile 10685
ācijas 10686
▁kontro 10687
avy 10688
ėme 10689
wier 10690
▁ked 10691
▁μην 10692
▁тор 10693
▁eest 10694
▁epis 10695
▁tard 10696
▁világ 10697
▁instrument 10698
bs 10699
γι 10700
miš 10701
▁fan 10702
▁High 10703
▁nies 10704
▁ξέρω 10705
▁Gar 10706
iteks 10707
▁Most 10708
▁week 10709
▁этой 10710
▁няколко 10711
ló 10712
▁tű 10713
▁jaz 10714
▁τρα 10715
▁hard 10716
▁lura 10717
▁prés 10718
▁conse 10719
▁egész 10720
▁troch 10721
▁nasled 10722
ωση 10723
ners 10724
▁gle 10725
▁Also 10726
▁Tada 10727
▁tund 10728
iausia 10729
▁samme 10730
padsmit 10731
▁sposób 10732
▁więcej 10733
eru 10734
кру 10735
ages 10736
burg 10737
▁Pat 10738
▁náv 10739
nehmen 10740
▁motiv 10741
vă 10742
can 10743
isf 10744
lox 10745
бен 10746
niki 10747
veis 10748
цата 10749
▁Dom 10750
▁jipp 10751
itions 10752
▁další 10753
▁wszystko 10754
▁ху 10755
care 10756
zent 10757
стре 10758
▁duż 10759
▁felt 10760
▁geda 10761
▁prič 10762
▁будь 10763
▁можна 10764
▁También 10765
▁všechny 10766
нер 10767
▁Си 10768
▁шо 10769
asin 10770
orta 10771
φορά 10772
▁riv 10773
▁vac 10774
▁zod 10775
atura 10776
isser 10777
▁přes 10778
▁vpra 10779
▁corre 10780
▁mobil 10781
▁vienas 10782
пен 10783
ток 10784
kont 10785
vend 10786
zych 10787
▁Auf 10788
▁môže 10789
▁nara 10790
▁pana 10791
▁singap 10792
▁сделать 10793
▁qualquer 10794
▁συνέχεια 10795
teți 10796
után 10797
▁mód 10798
produ 10799
▁Aces 10800
▁scen 10801
▁seks 10802
▁висо 10803
▁coisa 10804
▁kõige 10805
▁moram 10806
▁néhány 10807
sed 10808
▁хи 10809
nico 10810
▁Bur 10811
▁Gro 10812
▁paž 10813
▁sāk 10814
▁fire 10815
▁full 10816
▁embar 10817
▁можно 10818
ιχ 10819
erv 10820
zus 10821
šas 10822
смо 10823
▁ub 10824
▁Tik 10825
▁sci 10826
▁hela 10827
▁juht 10828
▁picc 10829
▁unde 10830
▁acolo 10831
▁small 10832
▁swoje 10833
▁tassew 10834
▁sempliċiment 10835
▁Čo 10836
ansk 10837
über 10838
▁păr 10839
доста 10840
ності 10841
▁saav 10842
▁одна 10843
тельно 10844
▁minun 10845
▁temos 10846
▁poskyt 10847
▁proble 10848
▁számára 10849
▁differenti 10850
юще 10851
▁Cl 10852
▁Għ 10853
chts 10854
▁fab 10855
▁úpl 10856
▁žád 10857
▁toki 10858
▁tuli 10859
▁Trump 10860
▁mnogo 10861
▁olema 10862
▁opera 10863
▁refer 10864
▁Ха 10865
rati 10866
ätte 10867
▁prec 10868
▁ziem 10869
▁eines 10870
▁moder 10871
▁alguns 10872
▁madwar 10873
▁sommes 10874
'. 10875
ντ 10876
nete 10877
ovit 10878
star 10879
рани 10880
▁vos 10881
▁dele 10882
▁young 10883
▁emberek 10884
єї 10885
▁lī 10886
arbe 10887
nées 10888
щите 10889
▁Alla 10890
▁Ihre 10891
▁arra 10892
▁comb 10893
▁spir 10894
▁Leute 10895
▁meidän 10896
▁proced 10897
▁jälkeen 10898
▁ťa 10899
cych 10900
czas 10901
żonn 10902
нием 10903
heten 10904
ición 10905
σταση 10906
▁dnes 10907
▁jedan 10908
▁nepie 10909
▁zeggen 10910
▁хората 10911
▁restaur 10912
▁minħabba 10913
mor 10914
▁Nas 10915
▁луч 10916
▁dela 10917
▁tapa 10918
▁trzy 10919
▁infrast 10920
▁некоторы 10921
▁Washington 10922
bun 10923
żew 10924
eker 10925
skom 10926
▁fik 10927
▁gav 10928
▁Probl 10929
▁grote 10930
▁οποίο 10931
▁τρόπο 10932
▁видео 10933
▁потре 10934
▁Знаете 10935
bos 10936
toz 10937
▁Of 10938
êtes 10939
▁Mes 10940
▁cât 10941
▁hål 10942
ready 10943
▁bedrij 10944
▁better 10945
▁another 10946
▁encontrar 10947
οί 10948
sst 10949
▁Aș 10950
цять 10951
▁Šis 10952
▁mismo 10953
▁today 10954
▁vajadz 10955
ému 10956
▁εμ 10957
reiz 10958
uras 10959
▁hai 10960
▁Alex 10961
▁Jest 10962
▁ozna 10963
▁επισ 10964
▁inici 10965
▁objet 10966
▁trois 10967
▁lehető 10968
▁nuestro 10969
▁support 10970
iaľ 10971
band 10972
iteľ 10973
тери 10974
▁His 10975
ather 10976
▁Hans 10977
▁altri 10978
▁razum 10979
▁tukaj 10980
▁dispos 10981
▁nieuwe 10982
ψει 10983
▁βά 10984
orii 10985
▁Bol 10986
istan 10987
▁Tied 10988
▁ered 10989
▁next 10990
▁powin 10991
lež 10992
mid 10993
žil 10994
▁Vy 10995
avam 10996
▁año 10997
▁jir 10998
esten 10999
▁områ 11000
▁atten 11001
▁eight 11002
▁diesen 11003
▁différ 11004
▁selbst 11005
▁platform 11006
ξω 11007
▁mī 11008
għaj 11009
бере 11010
нски 11011
▁Tut 11012
▁уви 11013
anske 11014
▁damit 11015
▁starp 11016
▁videli 11017
▁žmonės 11018
▁business 11019
▁À 11020
wen 11021
μου 11022
▁Mr 11023
▁ог 11024
baar 11025
▁lav 11026
▁rus 11027
▁šiu 11028
▁sebe 11029
▁house 11030
▁kuitenkin 11031
hle 11032
iam 11033
nol 11034
ský 11035
чні 11036
▁Joe 11037
▁Pak 11038
isión 11039
шення 11040
▁около 11041
▁kleine 11042
▁absolut 11043
▁actually 11044
сы 11045
жди 11046
▁Hy 11047
▁тъ 11048
dern 11049
iemy 11050
ités 11051
ovno 11052
ходя 11053
▁Wal 11054
▁pud 11055
▁tos 11056
▁func 11057
▁kahe 11058
▁nuevo 11059
farande 11060
▁dieses 11061
▁reform 11062
jte 11063
liz 11064
xxi 11065
čkom 11066
ώσει 11067
▁Gud 11068
▁ней 11069
rebbe 11070
▁Cela 11071
▁camp 11072
▁drie 11073
▁obič 11074
▁hende 11075
▁kaksi 11076
▁strukt 11077
▁trabaj 11078
▁trenut 11079
iones 11080
▁моло 11081
▁turime 11082
▁различ 11083
azzjonijiet 11084
ES 11085
ėli 11086
itat 11087
цион 11088
▁żgħ 11089
▁auto 11090
▁peque 11091
▁College 11092
äs 11093
ēļ 11094
ški 11095
λλα 11096
νων 11097
нах 11098
nými 11099
unkt 11100
▁Ass 11101
▁jib 11102
▁läm 11103
▁túl 11104
▁мар 11105
▁thous 11106
▁einige 11107
▁trabalho 11108
θο 11109
jän 11110
tet 11111
wro 11112
▁På 11113
wsze 11114
álne 11115
▁kru 11116
▁law 11117
▁πισ 11118
ereen 11119
▁hjæl 11120
▁suff 11121
▁trīs 11122
åd 11123
κλη 11124
▁Ki 11125
▁pú 11126
▁bak 11127
▁hår 11128
▁прав 11129
▁diferentes 11130
yty 11131
мін 11132
рок 11133
iros 11134
ради 11135
▁Son 11136
▁vzd 11137
▁neki 11138
ittäin 11139
▁después 11140
▁čl 11141
▁dic 11142
▁Aħna 11143
▁Sunt 11144
▁žiad 11145
▁forte 11146
▁основ 11147
▁kterou 11148
▁želite 11149
▁koskaan 11150
qq 11151
▁Ме 11152
▁фі 11153
ague 11154
diem 11155
ights 11156
сколь 11157
▁otvor 11158
▁potře 11159
▁quand 11160
▁astfel 11161
▁pasaul 11162
▁можуть 11163
▁dollars 11164
чва 11165
▁toe 11166
▁Ști 11167
▁stej 11168
▁toto 11169
▁Super 11170
▁základ 11171
▁получа 11172
▁already 11173
▁persona 11174
аль 11175
▁Uh 11176
kord 11177
acter 11178
▁sinu 11179
▁tiks 11180
▁доба 11181
▁dingen 11182
▁является 11183
rás 11184
▁rö 11185
amer 11186
▁kdo 11187
▁kiv 11188
▁Stud 11189
▁case 11190
▁jobb 11191
▁prist 11192
▁място 11193
▁zullen 11194
eva 11195
jaw 11196
▁Ora 11197
▁cél 11198
▁sos 11199
▁зда 11200
▁lume 11201
▁tage 11202
▁μέσα 11203
▁dolar 11204
▁podnik 11205
▁bastante 11206
idz 11207
āku 11208
ίζει 11209
▁haj 11210
▁împ 11211
▁όχι 11212
▁prvi 11213
▁доро 11214
▁komme 11215
▁consid 11216
▁fortfarande 11217
eit 11218
omu 11219
рак 11220
tors 11221
asser 11222
нията 11223
▁store 11224
▁Pentru 11225
cev 11226
meno 11227
ασία 11228
▁kau 11229
▁poj 11230
▁try 11231
▁wyn 11232
▁кру 11233
▁both 11234
▁teil 11235
▁druga 11236
▁achter 11237
▁futuro 11238
pression 11239
▁everything 11240
vő 11241
čni 11242
šno 11243
▁пъ 11244
kārt 11245
ordin 11246
prise 11247
▁clear 11248
▁uprav 11249
nă 11250
øn 11251
▁Σε 11252
▁Бу 11253
cieš 11254
rodo 11255
▁tok 11256
▁ring 11257
▁svět 11258
▁tale 11259
▁turn 11260
▁mõtlen 11261
▁comment 11262
▁powiedział 11263
тъ 11264
τρέ 11265
час 11266
▁CO 11267
itra 11268
μάδα 11269
▁ugy 11270
▁čak 11271
▁шко 11272
íamos 11273
ított 11274
▁pats 11275
▁държа 11276
▁сторо 11277
▁personal 11278
▁περισσότερο 11279
éc 11280
cią 11281
ión 11282
ška 11283
žin 11284
post 11285
▁paties 11286
▁немного 11287
god 11288
ünf 11289
imai 11290
sena 11291
▁mic 11292
▁Fort 11293
▁eleg 11294
owania 11295
▁rappor 11296
azi 11297
ías 11298
πισ 11299
▁iki 11300
▁дъл 11301
ogħol 11302
▁Hand 11303
▁enam 11304
▁кажа 11305
▁себя 11306
▁pierw 11307
▁vrijeme 11308
▁început 11309
otr 11310
ills 11311
pool 11312
ektiv 11313
irati 11314
▁Cred 11315
▁alap 11316
▁budu 11317
▁ludz 11318
▁sige 11319
▁można 11320
▁objav 11321
▁więks 11322
zzjonijiet 11323
dą 11324
mai 11325
jeli 11326
▁erg 11327
▁geb 11328
insab 11329
uksia 11330
▁order 11331
▁αυτού 11332
▁опера 11333
▁depois 11334
IN 11335
▁muž 11336
▁plo 11337
▁järg 11338
▁kogu 11339
žio 11340
onos 11341
orna 11342
pens 11343
umis 11344
unge 11345
▁Pet 11346
cznie 11347
▁uden 11348
▁avant 11349
▁certa 11350
▁vezet 11351
▁transport 11352
ūd 11353
стя 11354
iben 11355
▁pje 11356
▁Está 11357
▁left 11358
entras 11359
▁všetko 11360
▁χρόνια 11361
▁noastră 11362
ists 11363
▁hör 11364
▁pitä 11365
▁sang 11366
▁люби 11367
▁полі 11368
lighed 11369
▁tärke 11370
▁zanim 11371
▁sammen 11372
iac 11373
ēma 11374
▁πι 11375
asto 11376
▁stu 11377
▁ζωή 11378
μάτων 11379
▁δυνα 11380
quanto 11381
▁money 11382
▁programa 11383
oče 11384
▁uș 11385
älla 11386
▁Tie 11387
▁uur 11388
ichte 11389
▁επει 11390
▁коман 11391
▁thought 11392
ció 11393
dea 11394
char 11395
▁cał 11396
▁gek 11397
▁fără 11398
▁isegi 11399
▁William 11400
▁verschill 11401
ζε 11402
enk 11403
gue 11404
μερα 11405
▁paj 11406
▁wła 11407
▁done 11408
▁perg 11409
fra 11410
▁κύ 11411
▁moc 11412
▁Pour 11413
▁dont 11414
▁vienu 11415
▁grandes 11416
▁Kl 11417
akor 11418
лено 11419
▁træ 11420
inātu 11421
autres 11422
▁derni 11423
▁course 11424
ανά 11425
жды 11426
▁Ca 11427
▁Ре 11428
ieri 11429
jeno 11430
▁Bud 11431
▁izg 11432
▁szó 11433
▁faktiskt 11434
чь 11435
iei 11436
von 11437
бер 11438
ējās 11439
λαμβ 11440
дата 11441
▁dio 11442
ished 11443
ittel 11444
▁Cont 11445
kot 11446
ньо 11447
sker 11448
жива 11449
ково 11450
▁emb 11451
▁iga 11452
▁Kaip 11453
▁merk 11454
▁naših 11455
rut 11456
▁nő 11457
egor 11458
▁día 11459
▁Μπο 11460
▁rajt 11461
▁consum 11462
▁nostri 11463
▁acestea 11464
ίου 11465
veik 11466
▁Mul 11467
▁fér 11468
tavad 11469
▁qatt 11470
▁sure 11471
▁știu 11472
▁забе 11473
▁saker 11474
▁seura 11475
▁πάντα 11476
vos 11477
тка 11478
стер 11479
▁může 11480
▁piet 11481
▁даже 11482
▁внима 11483
▁Euroopa 11484
▁изглежда 11485
lip 11486
▁Šv 11487
ħadd 11488
▁Cel 11489
▁ära 11490
uvent 11491
észet 11492
ępnie 11493
ската 11494
▁Mont 11495
▁nevo 11496
▁rada 11497
▁North 11498
▁Peter 11499
▁ludzi 11500
▁ситуа 11501
čna 11502
вый 11503
мей 11504
▁Beh 11505
▁Bem 11506
▁bog 11507
▁few 11508
менно 11509
▁crit 11510
▁ella 11511
▁llam 11512
▁πολι 11513
▁όπου 11514
▁роби 11515
▁másik 11516
▁mercado 11517
бор 11518
дав 11519
▁Bel 11520
kring 11521
▁When 11522
▁päät 11523
▁Alors 11524
▁estos 11525
▁tõesti 11526
▁πραγματικά 11527
sey 11528
ços 11529
ūras 11530
▁Bal 11531
▁Ihr 11532
▁χρή 11533
▁erine 11534
▁global 11535
▁повинні 11536
öh 11537
bym 11538
tsz 11539
дим 11540
änyt 11541
▁Ace 11542
▁lle 11543
▁rég 11544
ensch 11545
▁bile 11546
▁saab 11547
▁erano 11548
▁έχετε 11549
ijd 11550
pai 11551
▁dė 11552
anas 11553
ests 11554
inál 11555
▁ġie 11556
ujete 11557
▁risk 11558
▁którzy 11559
▁sektor 11560
▁sidste 11561
elleicht 11562
▁поэтому 11563
▁Mel 11564
▁kov 11565
▁Will 11566
▁avem 11567
▁odlo 11568
▁preo 11569
▁демо 11570
▁пози 11571
▁право 11572
▁outros 11573
▁possible 11574
▁nepiecieš 11575
dru 11576
nus 11577
täm 11578
čiu 11579
bile 11580
▁ráp 11581
▁tæn 11582
▁δου 11583
▁пог 11584
amist 11585
emény 11586
raven 11587
▁paik 11588
▁wich 11589
▁πάνω 11590
▁Selle 11591
▁samen 11592
▁uvijek 11593
▁призна 11594
▁сказал 11595
▁Mat 11596
▁Lord 11597
▁ahol 11598
▁bezpe 11599
▁hacia 11600
▁vahel 11601
▁täällä 11602
ellement 11603
koh 11604
tow 11605
ijen 11606
iles 11607
ität 11608
ybės 11609
▁kut 11610
▁Nüüd 11611
▁Taču 11612
▁vero 11613
▁času 11614
▁тран 11615
▁bżonn 11616
▁putem 11617
▁country 11618
íl 11619
είο 11620
πόν 11621
▁έκ 11622
▁elf 11623
▁bedo 11624
▁ennen 11625
ED 11626
ċċa 11627
▁epä 11628
▁byly 11629
▁ħass 11630
кономи 11631
▁bismo 11632
▁αρκετά 11633
сла 11634
▁Vien 11635
▁meno 11636
▁neby 11637
▁detal 11638
▁serie 11639
agement 11640
▁ensimmä 11641
▁učiniti 11642
φό 11643
aby 11644
▁Μα 11645
▁Τζ 11646
lier 11647
pond 11648
ικών 11649
▁ees 11650
▁aina 11651
▁patr 11652
▁αυτο 11653
▁number 11654
λιο 11655
йки 11656
▁Af 11657
anță 11658
saħħ 11659
urer 11660
▁świ 11661
▁βλέ 11662
▁barn 11663
▁live 11664
▁кори 11665
▁erittäin 11666
jati 11667
▁três 11668
▁друг 11669
kelijk 11670
▁annan 11671
▁count 11672
▁jkoll 11673
▁manau 11674
▁pendant 11675
фо 11676
ολο 11677
▁tę 11678
arti 11679
▁Tro 11680
▁сра 11681
▁mess 11682
▁suoi 11683
▁πριν 11684
▁счита 11685
скільки 11686
▁hendes 11687
▁strani 11688
▁контро 11689
▁behöver 11690
▁während 11691
▁distribu 11692
▁information 11693
giv 11694
kop 11695
ügy 11696
ütt 11697
▁úč 11698
cast 11699
olle 11700
utas 11701
▁във 11702
angen 11703
ingar 11704
ských 11705
▁täytyy 11706
▁personnes 11707
кло 11708
кої 11709
▁Cr 11710
▁lå 11711
▁māj 11712
esség 11713
▁nori 11714
▁recu 11715
▁часто 11716
▁altijd 11717
цию 11718
prim 11719
▁sev 11720
elige 11721
▁blog 11722
▁total 11723
▁English 11724
usz 11725
irty 11726
ulen 11727
λλον 11728
нову 11729
▁зай 11730
▁flere 11731
▁irrit 11732
▁znova 11733
▁încer 11734
▁проти 11735
▁dejansko 11736
út 11737
▁Ки 11738
ikos 11739
iras 11740
rael 11741
▁nib 11742
▁bort 11743
▁ampak 11744
▁labor 11745
▁staat 11746
▁tillb 11747
▁казва 11748
▁budeme 11749
▁develop 11750
▁възможно 11751
win 11752
▁šį 11753
▁Νο 11754
σεων 11755
▁kry 11756
▁впе 11757
▁Esta 11758
▁Meta 11759
▁seja 11760
▁těch 11761
▁Torej 11762
▁behand 11763
ůj 11764
æld 11765
рио 11766
ovej 11767
ried 11768
нами 11769
▁Turn 11770
▁ress 11771
▁säga 11772
▁vrat 11773
▁пові 11774
▁dosta 11775
▁финан 11776
▁natural 11777
▁adevărat 11778
σμα 11779
▁eż 11780
elsen 11781
stell 11782
▁mist 11783
▁stim 11784
▁získ 11785
▁varit 11786
boj 11787
mur 11788
юсь 11789
alog 11790
eres 11791
ints 11792
rito 11793
▁αγο 11794
nější 11795
▁nauč 11796
▁нови 11797
erende 11798
▁conta 11799
▁gesti 11800
▁sprem 11801
▁watch 11802
▁follow 11803
▁parece 11804
hus 11805
new 11806
ply 11807
ruc 11808
tua 11809
nten 11810
quis 11811
дума 11812
▁riz 11813
ijoje 11814
нечно 11815
▁Alle 11816
▁kred 11817
▁mikä 11818
▁pozi 11819
▁media 11820
▁prefer 11821
egn 11822
zig 11823
▁Une 11824
▁bou 11825
▁gent 11826
▁olin 11827
▁sale 11828
▁tavo 11829
▁teate 11830
▁vezes 11831
▁разви 11832
▁fiecare 11833
▁identif 11834
ña 11835
цы 11836
isl 11837
alqu 11838
▁Lin 11839
▁paš 11840
▁plă 11841
▁keli 11842
▁snie 11843
▁τέτο 11844
▁почти 11845
▁pueden 11846
▁jagħmlu 11847
▁άνθρωποι 11848
yv 11849
gos 11850
лта 11851
óbál 11852
▁Bra 11853
▁Tad 11854
▁erre 11855
▁reak 11856
▁skat 11857
ватися 11858
▁implement 11859
▁University 11860
poz 11861
кси 11862
роб 11863
▁Тя 11864
andt 11865
onas 11866
лові 11867
▁Rec 11868
▁aos 11869
weise 11870
▁democ 11871
▁luego 11872
▁miten 11873
▁called 11874
▁отрима 11875
ID 11876
ols 11877
ról 11878
vaa 11879
στο 11880
ġija 11881
▁ono 11882
▁señ 11883
▁misl 11884
▁prek 11885
телите 11886
▁album 11887
▁imate 11888
▁πολλά 11889
▁design 11890
▁partie 11891
▁Michael 11892
▁gospodar 11893
▁progress 11894
▁fő 11895
ysti 11896
▁mať 11897
▁yle 11898
▁Mind 11899
▁lent 11900
▁ster 11901
▁Вона 11902
urilor 11903
▁segur 11904
▁следу 11905
▁happen 11906
▁vilket 11907
▁kiekvien 11908
rum 11909
υχα 11910
вая 11911
▁ЕС 11912
lock 11913
▁tár 11914
▁Что 11915
▁ford 11916
▁gick 11917
▁свър 11918
▁estou 11919
▁kolme 11920
▁posso 11921
▁sulle 11922
δυ 11923
cja 11924
sig 11925
τερ 11926
τρε 11927
cere 11928
znek 11929
▁Sol 11930
▁συγ 11931
āciju 11932
▁mari 11933
▁mogą 11934
▁reag 11935
▁žmog 11936
▁istor 11937
▁punkt 11938
▁увели 11939
▁beslut 11940
jš 11941
ādā 11942
alth 11943
šení 11944
▁Vel 11945
▁Mann 11946
▁Exist 11947
▁Gerai 11948
▁lange 11949
▁podat 11950
▁umbes 11951
▁госпо 11952
▁szükség 11953
ínű 11954
▁aħ 11955
▁τί 11956
jela 11957
▁kav 11958
▁stal 11959
▁komis 11960
▁legal 11961
▁nekad 11962
ίκ 11963
ząd 11964
fort 11965
ssze 11966
uire 11967
▁дер 11968
▁Acum 11969
▁leta 11970
▁pain 11971
▁tour 11972
▁üles 11973
▁zajed 11974
▁trabajo 11975
íš 11976
uur 11977
pira 11978
▁náz 11979
▁объ 11980
ieman 11981
чайно 11982
▁Ahora 11983
▁dentro 11984
▁priprav 11985
▁fotograf 11986
▁ģ 11987
irs 11988
vět 11989
πού 11990
nije 11991
encia 11992
▁pays 11993
▁viime 11994
▁трохи 11995
▁ús 11996
edan 11997
umos 11998
дели 11999
▁κου 12000
▁géné 12001
▁měli 12002
▁titt 12003
▁dalje 12004
▁kilka 12005
▁teljes 12006
ěli 12007
žių 12008
▁vs 12009
▁náš 12010
▁вид 12011
ature 12012
▁bamb 12013
▁prea 12014
▁ιστο 12015
▁коле 12016
▁gover 12017
▁aconte 12018
▁mindre 12019
▁tillbaka 12020
qué 12021
нал 12022
нта 12023
ovou 12024
▁Azt 12025
▁γρα 12026
▁рів 12027
▁gdzie 12028
▁συνεχ 12029
ьогодні 12030
▁potrze 12031
▁consegu 12032
sze 12033
uos 12034
кта 12035
ogli 12036
usid 12037
▁kno 12038
▁plu 12039
▁čin 12040
▁лет 12041
illes 12042
▁laps 12043
▁двад 12044
▁front 12045
▁komma 12046
▁pracov 12047
▁importanti 12048
čk 12049
ιβ 12050
▁гу 12051
eset 12052
owan 12053
▁ear 12054
▁hul 12055
▁záv 12056
▁nord 12057
▁краї 12058
▁несколько 12059
φη 12060
нії 12061
сов 12062
тки 12063
▁měl 12064
▁növ 12065
▁Issa 12066
▁bele 12067
▁ilma 12068
▁inom 12069
▁morda 12070
▁човек 12071
▁υπάρχουν 12072
ôr 12073
ánd 12074
жим 12075
▁Ny 12076
etud 12077
icas 12078
kich 12079
lade 12080
ritt 12081
self 12082
виси 12083
▁nós 12084
▁Она 12085
cijos 12086
wards 12087
▁cust 12088
▁each 12089
▁gând 12090
▁home 12091
▁Коли 12092
▁голя 12093
tonces 12094
▁senza 12095
▁acesta 12096
▁pagrind 12097
▁continue 12098
obe 12099
тия 12100
▁ры 12101
niec 12102
owej 12103
għand 12104
ieten 12105
igura 12106
▁hvil 12107
▁Dette 12108
▁možda 12109
▁nouve 12110
▁всеки 12111
▁strane 12112
▁zrobić 12113
ņi 12114
aus 12115
nal 12116
вне 12117
▁rô 12118
▁Ні 12119
unea 12120
▁Kor 12121
▁føl 12122
▁важ 12123
antis 12124
▁Here 12125
▁колко 12126
entlich 12127
▁vállal 12128
▁органи 12129
▁отново 12130
▁предло 12131
▁għalhekk 12132
nę 12133
rš 12134
ină 12135
vál 12136
anak 12137
etag 12138
zení 12139
▁oni 12140
īties 12141
▁rekel 12142
▁misschien 12143
jede 12144
зиден 12145
▁heel 12146
▁visa 12147
▁дори 12148
▁indic 12149
▁skirt 12150
▁mitään 12151
▁capital 12152
цу 12153
ieq 12154
jär 12155
▁sû 12156
plan 12157
tijiet 12158
▁Bueno 12159
▁difíc 12160
▁först 12161
▁hecho 12162
▁meest 12163
▁stati 12164
▁случа 12165
▁созда 12166
ελ 12167
рд 12168
acy 12169
cke 12170
шов 12171
fall 12172
ieur 12173
▁möj 12174
▁nab 12175
▁tör 12176
▁απα 12177
▁маю 12178
▁csal 12179
▁après 12180
▁voltak 12181
opp 12182
mena 12183
zeit 12184
ουργ 12185
▁μμμ 12186
atelj 12187
untos 12188
пасно 12189
▁även 12190
▁confi 12191
▁conhe 12192
▁allemaal 12193
▁demokrat 12194
ză 12195
mag 12196
νου 12197
onda 12198
▁Sve 12199
▁ala 12200
ettre 12201
▁circ 12202
▁okol 12203
▁nawet 12204
▁находи 12205
▁student 12206
▁Entonces 12207
øm 12208
oly 12209
вра 12210
ksta 12211
riet 12212
util 12213
▁Rad 12214
▁auk 12215
▁což 12216
▁jug 12217
▁ram 12218
▁μερ 12219
▁υπό 12220
▁здо 12221
▁sele 12222
atakse 12223
▁sabes 12224
▁telef 12225
▁після 12226
чив 12227
ędzy 12228
▁Tex 12229
▁ilg 12230
▁măs 12231
▁pik 12232
▁gebe 12233
▁toliko 12234
▁înainte 12235
▁rezultat 12236
▁Ж 12237
isp 12238
vať 12239
aker 12240
anos 12241
▁uro 12242
istus 12243
▁unul 12244
▁деле 12245
▁Black 12246
▁cerca 12247
▁pješa 12248
▁hieman 12249
▁μεγαλύτε 12250
mēr 12251
▁Pan 12252
▁bot 12253
▁тер 12254
istaa 12255
▁mają 12256
▁zoom 12257
▁kokku 12258
▁thousand 12259
poġġ 12260
ījās 12261
жать 12262
▁Dem 12263
▁rib 12264
στόσο 12265
▁után 12266
eszcze 12267
▁gegen 12268
▁poseb 12269
▁použív 12270
▁дійсно 12271
▁cilvēki 12272
▁Għalhekk 12273
▁использо 12274
ема 12275
рам 12276
ared 12277
твер 12278
field 12279
▁Parl 12280
▁spec 12281
▁yhtä 12282
▁εται 12283
▁nuovo 12284
▁solid 12285
▁свобо 12286
▁dovolj 12287
▁relativ 12288
▁historia 12289
mie 12290
ġel 12291
▁Zo 12292
▁tă 12293
cido 12294
esty 12295
▁změ 12296
▁trop 12297
▁поча 12298
▁odnos 12299
ybė 12300
▁εσ 12301
pass 12302
ætte 12303
▁Dok 12304
▁Int 12305
▁Pom 12306
ované 12307
ствие 12308
▁Cent 12309
▁στρα 12310
▁Tento 12311
▁inimesed 12312
σκ 12313
toj 12314
čke 12315
▁ké 12316
▁λά 12317
ridu 12318
umen 12319
▁дво 12320
▁akar 12321
▁můžete 12322
▁pö 12323
urch 12324
кому 12325
▁Bus 12326
▁won 12327
▁pénz 12328
▁sagt 12329
▁nejak 12330
▁навіть 12331
rew 12332
jade 12333
▁Sil 12334
▁Tor 12335
▁sze 12336
ables 12337
▁lleg 12338
▁nauj 12339
▁nkun 12340
▁stil 12341
▁három 12342
▁вважа 12343
▁dejjem 12344
ugi 12345
āji 12346
▁Id 12347
žiūr 12348
țele 12349
▁Kir 12350
▁pél 12351
woord 12352
▁Eiro 12353
▁kiir 12354
▁group 12355
▁invol 12356
▁jaħ 12357
▁lej 12358
▁vėl 12359
▁Viņi 12360
▁aten 12361
▁happ 12362
▁свое 12363
▁darbu 12364
▁lille 12365
▁negal 12366
▁permit 12367
▁razmiš 12368
▁nagħmlu 12369
ιγ 12370
нд 12371
▁uu 12372
cipl 12373
▁Deze 12374
▁brez 12375
▁kuru 12376
▁took 12377
▁uved 12378
▁запа 12379
▁causa 12380
▁pirms 12381
▁reger 12382
▁reven 12383
▁spolu 12384
▁vrouw 12385
▁οποία 12386
▁нього 12387
▁succes 12388
▁Kalifor 12389
▁Поэтому 12390
▁nacional 12391
▁particip 12392
▁wszystkie 12393
bur 12394
kei 12395
kir 12396
umą 12397
гом 12398
ørgs 12399
φορε 12400
▁sous 12401
▁essas 12402
▁prive 12403
▁glaube 12404
вре 12405
▁мъ 12406
▁кор 12407
astro 12408
organ 12409
ήμερα 12410
▁King 12411
▁σημε 12412
▁Хоро 12413
▁každý 12414
▁milij 12415
▁viņas 12416
▁помощ 12417
▁accord 12418
▁можливо 12419
yo 12420
olen 12421
▁Jen 12422
▁Pra 12423
▁оче 12424
▁δημι 12425
▁гото 12426
▁gonna 12427
▁hadden 12428
▁επειδή 12429
▁предпо 12430
izo 12431
pit 12432
vär 12433
ūtu 12434
μμα 12435
▁wł 12436
▁μή 12437
ijet 12438
ések 12439
чить 12440
▁apo 12441
▁вме 12442
▁яку 12443
prend 12444
▁atta 12445
▁ezek 12446
▁míst 12447
▁rink 12448
▁край 12449
▁поле 12450
▁maggi 12451
▁hennes 12452
▁seiner 12453
▁žmonių 12454
▁Просто 12455
rā 12456
лъ 12457
bid 12458
lak 12459
▁αγ 12460
▁sup 12461
▁фун 12462
vanje 12463
κειται 12464
▁Count 12465
▁terri 12466
▁podjet 12467
▁priekš 12468
▁argument 12469
▁difficile 12470
hou 12471
lal 12472
tuk 12473
мно 12474
▁μι 12475
▁фа 12476
virt 12477
стно 12478
▁kés 12479
▁řek 12480
▁όσο 12481
τουργ 12482
▁Teil 12483
▁deix 12484
▁pequ 12485
▁деся 12486
▁прий 12487
▁Agora 12488
▁dodat 12489
▁скоро 12490
▁London 12491
▁moramo 12492
▁također 12493
▁verschillende 12494
▁kļ 12495
gend 12496
pozn 12497
▁ged 12498
▁pac 12499
ített 12500
▁mimo 12501
▁tenho 12502
▁propor 12503
▁Francis 12504
▁oamenii 12505
bio 12506
edať 12507
▁obs 12508
▁κρα 12509
▁citt 12510
▁stup 12511
▁года 12512
▁abord 12513
▁groot 12514
▁initi 12515
▁vysok 12516
▁aliment 12517
lon 12518
гне 12519
▁иг 12520
▁със 12521
cijas 12522
menta 12523
▁firm 12524
▁meet 12525
▁Gener 12526
▁szere 12527
▁Robert 12528
▁atunci 12529
▁Califor 12530
νώ 12531
pes 12532
ħol 12533
τει 12534
ideo 12535
шого 12536
▁igr 12537
endar 12538
▁anno 12539
▁devi 12540
▁răsp 12541
▁ποτέ 12542
▁уста 12543
▁númer 12544
▁quero 12545
▁želim 12546
▁geweld 12547
▁jestem 12548
▁mukaan 12549
▁Estados 12550
цо 12551
got 12552
hető 12553
ilta 12554
soci 12555
пусти 12556
▁tady 12557
▁avere 12558
▁kollox 12559
żjoni 12560
циона 12561
▁imel 12562
▁kaup 12563
▁kjer 12564
▁krat 12565
▁lije 12566
▁naši 12567
▁verl 12568
▁häntä 12569
▁chcete 12570
▁dobrze 12571
▁queste 12572
▁industr 12573
čun 12574
▁ej 12575
estr 12576
ľvek 12577
▁Noh 12578
▁kab 12579
▁szy 12580
▁tib 12581
iniai 12582
ového 12583
▁Prav 12584
▁прия 12585
▁might 12586
▁прове 12587
▁jautāj 12588
▁nossos 12589
▁trochę 12590
čia 12591
▁vé 12592
▁ön 12593
chio 12594
▁σχέ 12595
▁dice 12596
▁weit 12597
▁Dinge 12598
▁decid 12599
▁large 12600
▁ngħid 12601
▁ľudia 12602
itajiet 12603
▁anders 12604
▁möchte 12605
▁quella 12606
▁tienen 12607
▁quelques 12608
▁fundament 12609
less 12610
▁cla 12611
▁lån 12612
▁usu 12613
▁ofer 12614
▁pozd 12615
▁дали 12616
▁Tagad 12617
▁integ 12618
▁Island 12619
▁vannak 12620
őr 12621
дел 12622
altà 12623
vény 12624
αυτό 12625
йски 12626
▁Tan 12627
▁lij 12628
▁lit 12629
uslik 12630
▁Mark 12631
▁Vers 12632
▁виду 12633
▁komen 12634
▁вижда 12635
▁jedoch 12636
▁However 12637
kā 12638
emt 12639
▁έπ 12640
ÓÓÓÓ 12641
▁cei 12642
▁rám 12643
▁olet 12644
▁přip 12645
▁знае 12646
▁doing 12647
▁manera 12648
▁πραγματικότητα 12649
ъп 12650
nai 12651
via 12652
нки 12653
▁Fo 12654
▁Zn 12655
▁às 12656
eked 12657
eniu 12658
знес 12659
ээээ 12660
▁fih 12661
▁nah 12662
▁Ένα 12663
▁σπί 12664
▁взе 12665
▁mamy 12666
▁opin 12667
▁pasi 12668
▁unui 12669
▁někol 12670
▁oblig 12671
▁vista 12672
▁könnte 12673
▁między 12674
▁himself 12675
▁jeszcze 12676
▁pješačkom 12677
sh 12678
cii 12679
pot 12680
alom 12681
nimi 12682
йййй 12683
▁deel 12684
▁eram 12685
▁usar 12686
▁After 12687
▁našim 12688
tttttttt 12689
▁konkuren 12690
nn 12691
θω 12692
χρι 12693
erto 12694
wijl 12695
▁Sab 12696
▁teď 12697
▁вже 12698
▁ovaj 12699
▁rema 12700
▁denken 12701
¿¿¿¿¿¿¿¿ 12702
γέ 12703
sty 12704
šao 12705
два 12706
▁pł 12707
▁пол 12708
ikult 12709
▁Tema 12710
▁trud 12711
iempre 12712
▁alkal 12713
▁ellos 12714
▁pojav 12715
▁zeker 12716
▁všetky 12717
jun 12718
кар 12719
▁bé 12720
▁Ли 12721
isku 12722
▁mít 12723
ovati 12724
ότητα 12725
чения 12726
▁Clar 12727
▁aktu 12728
▁asio 12729
▁eens 12730
▁jače 12731
▁jednu 12732
▁nozīm 12733
▁siamo 12734
▁wereld 12735
eh 12736
isc 12737
flus 12738
ivan 12739
ėėėė 12740
τούν 12741
▁Sur 12742
▁моя 12743
ходит 12744
▁Amaz 12745
▁tran 12746
▁folos 12747
▁reišk 12748
▁hatten 12749
▁timpul 12750
▁života 12751
▁niektor 12752
vää 12753
isme 12754
▁Aut 12755
▁Pen 12756
▁Pros 12757
ligere 12758
tionen 12759
▁envir 12760
▁njihov 12761
▁algumas 12762
▁product 12763
▁необходи 12764
χη 12765
ijs 12766
reb 12767
liku 12768
ίγου 12769
▁koń 12770
▁Dans 12771
▁saad 12772
▁Ihnen 12773
▁samoz 12774
▁själv 12775
▁valam 12776
▁зараз 12777
▁olemme 12778
▁travail 12779
▁jogħġbok 12780
ут 12781
aps 12782
etr 12783
onta 12784
μένε 12785
чета 12786
▁vět 12787
▁ефе 12788
aller 12789
▁Stra 12790
▁chem 12791
▁gdje 12792
▁kats 12793
▁zmen 12794
▁поня 12795
▁siihen 12796
▁understand 12797
uva 12798
ökk 12799
okol 12800
іііі 12801
▁Lai 12802
ultur 12803
▁Okej 12804
▁alue 12805
▁sant 12806
▁tipp 12807
▁obraz 12808
▁service 12809
pom 12810
рой 12811
izen 12812
kład 12813
аааа 12814
▁Ros 12815
▁cht 12816
говор 12817
▁Labi 12818
▁seul 12819
▁type 12820
tività 12821
▁самом 12822
▁hogyan 12823
▁kvartal 12824
áž 12825
usc 12826
nili 12827
уууу 12828
▁Jum 12829
▁ate 12830
▁sue 12831
▁зви 12832
avimo 12833
istes 12834
▁geht 12835
▁half 12836
▁musi 12837
▁nisu 12838
▁pokr 12839
▁weer 12840
komplu 12841
latego 12842
▁fokus 12843
▁vielä 12844
▁prihod 12845
▁година 12846
▁president 12847
ceu 12848
org 12849
ági 12850
čný 12851
сну 12852
▁Spr 12853
▁też 12854
▁obra 12855
▁soov 12856
▁Иска 12857
вление 12858
▁altro 12859
▁donde 12860
stellen 12861
▁giorno 12862
▁всъщност 12863
öß 12864
esu 12865
νει 12866
▁Спо 12867
anger 12868
owane 12869
▁able 12870
▁były 12871
▁mezi 12872
▁дово 12873
ellige 12874
▁kraju 12875
▁lista 12876
▁menar 12877
▁resni 12878
▁tejto 12879
▁familie 12880
open 12881
ůůůů 12882
▁gef 12883
▁ori 12884
więks 12885
▁brat 12886
▁ešte 12887
▁stör 12888
▁вина 12889
▁щодо 12890
▁друга 12891
▁jednak 12892
▁kontra 12893
▁regist 12894
', 12895
chy 12896
hrt 12897
▁εξα 12898
▁Donc 12899
▁Hier 12900
▁kral 12901
▁kyse 12902
▁snaž 12903
▁godina 12904
▁хорошо 12905
▁difícil 12906
▁omkring 12907
ох 12908
фа 12909
nál 12910
τοι 12911
▁pá 12912
cies 12913
ției 12914
▁kin 12915
▁rip 12916
▁vul 12917
▁περ 12918
▁кро 12919
▁neat 12920
▁stát 12921
▁спро 12922
▁barra 12923
▁jelen 12924
▁nuestros 12925
kust 12926
обра 12927
▁mēr 12928
▁sky 12929
▁stør 12930
▁visas 12931
▁mentre 12932
▁przypad 12933
zia 12934
øde 12935
ēts 12936
зад 12937
▁Въ 12938
ends 12939
esar 12940
▁Nagu 12941
▁disk 12942
▁pils 12943
▁στιγ 12944
▁сигу 12945
▁стан 12946
▁dogod 12947
▁kollu 12948
▁priem 12949
▁toute 12950
▁conten 12951
▁medlem 12952
▁empresa 12953
▁children 12954
▁problemas 12955
cje 12956
ias 12957
lue 12958
nię 12959
allo 12960
τησε 12961
▁peg 12962
színű 12963
▁manu 12964
▁Ήταν 12965
▁German 12966
▁precej 12967
▁diferen 12968
DA 12969
ijā 12970
řád 12971
▁Dr 12972
▁ép 12973
▁üm 12974
▁Κά 12975
mány 12976
țile 12977
ской 12978
▁cea 12979
▁høj 12980
▁еле 12981
▁equi 12982
▁erau 12983
▁pool 12984
▁udrž 12985
nostav 12986
▁nooit 12987
▁patru 12988
amiento 12989
▁kanske 12990
оооооооо 12991
úr 12992
rii 12993
ună 12994
вед 12995
тва 12996
---- 12997
isty 12998
ksam 12999
otos 13000
szak 13001
úúúú 13002
▁Hal 13003
▁hid 13004
▁län 13005
▁smr 13006
▁žem 13007
amies 13008
▁вирі 13009
▁защи 13010
▁moral 13011
▁terve 13012
▁utilis 13013
▁вероятно 13014
aca 13015
poj 13016
vai 13017
▁oz 13018
ření 13019
αααα 13020
▁λει 13021
▁уни 13022
heiro 13023
▁idee 13024
▁jiġu 13025
▁αντί 13026
ierung 13027
▁ihren 13028
▁nodig 13029
▁Европей 13030
ané 13031
rev 13032
▁Fu 13033
asis 13034
digt 13035
imat 13036
iona 13037
omer 13038
νννν 13039
рабо 13040
▁Taj 13041
▁Ven 13042
▁små 13043
▁öel 13044
ieron 13045
▁fest 13046
▁polož 13047
▁érdek 13048
▁family 13049
▁believe 13050
▁tenemos 13051
AAAAAAAAAAAAAAAA 13052
▁Sw 13053
buje 13054
ikki 13055
ließ 13056
дати 13057
▁Kos 13058
▁Nav 13059
uchen 13060
▁grow 13061
▁kust 13062
▁obec 13063
▁piln 13064
▁temu 13065
▁gehen 13066
▁stron 13067
▁tinha 13068
▁visus 13069
▁років 13070
▁binnen 13071
lád 13072
▁bă 13073
dául 13074
eras 13075
ostí 13076
▁Mod 13077
▁Sus 13078
▁vkl 13079
▁imen 13080
▁nipp 13081
▁read 13082
▁desen 13083
▁poput 13084
▁життя 13085
▁знову 13086
▁sicher 13087
▁výsled 13088
▁peuvent 13089
ξύ 13090
ρίε 13091
▁lū 13092
▁πή 13093
igdy 13094
mine 13095
prāt 13096
льні 13097
мові 13098
▁byg 13099
itori 13100
rasta 13101
▁aște 13102
▁geno 13103
▁room 13104
▁unge 13105
▁vois 13106
▁camin 13107
▁ještě 13108
ächlich 13109
▁besoin 13110
▁където 13111
szú 13112
λιά 13113
▁Ru 13114
nade 13115
ollu 13116
óság 13117
▁Sav 13118
annel 13119
usega 13120
▁πίσω 13121
ických 13122
▁outro 13123
▁varje 13124
▁csinál 13125
▁kombin 13126
▁znamená 13127
χυ 13128
puis 13129
wort 13130
▁once 13131
▁Person 13132
▁willen 13133
▁primeiro 13134
βε 13135
čky 13136
ória 13137
ливо 13138
▁väč 13139
льные 13140
▁cool 13141
▁majú 13142
▁jooks 13143
▁nelle 13144
▁клиен 13145
▁izmant 13146
▁nebija 13147
▁diezgan 13148
zdži 13149
▁jeb 13150
aggio 13151
lijke 13152
▁xejn 13153
▁стру 13154
▁estoy 13155
▁össze 13156
▁Naħseb 13157
▁информа 13158
▁niciodată 13159
ON 13160
før 13161
hov 13162
ues 13163
▁ír 13164
▁ata 13165
▁caz 13166
▁dop 13167
▁giv 13168
▁tea 13169
▁кар 13170
▁drei 13171
▁neum 13172
▁soft 13173
▁vale 13174
▁pagal 13175
▁tieši 13176
▁відчу 13177
▁morali 13178
▁period 13179
▁vinden 13180
IIIIIIII 13181
égi 13182
▁air 13183
▁lum 13184
▁têm 13185
andon 13186
anted 13187
stitu 13188
utter 13189
▁appe 13190
▁atst 13191
▁gost 13192
▁novo 13193
▁pust 13194
▁ident 13195
▁ignor 13196
▁tulem 13197
▁ljudje 13198
▁toliau 13199
▁страна 13200
ficiente 13201
êt 13202
úč 13203
ļi 13204
ιν 13205
λύ 13206
дем 13207
▁šī 13208
bene 13209
into 13210
рита 13211
▁Bon 13212
▁Roz 13213
▁bat 13214
▁πρω 13215
▁тим 13216
inner 13217
▁mier 13218
▁zona 13219
▁jednodu 13220
▁ανθρώπου 13221
ЕЙ 13222
anna 13223
dawl 13224
puks 13225
tuur 13226
▁сем 13227
▁уда 13228
dzieć 13229
tavia 13230
▁corr 13231
▁nebu 13232
▁popr 13233
▁tyto 13234
▁penso 13235
▁δημιουργ 13236
jne 13237
ját 13238
usk 13239
лли 13240
itab 13241
utar 13242
θεια 13243
чний 13244
▁jää 13245
▁Jeho 13246
▁font 13247
▁lähe 13248
▁publ 13249
▁veci 13250
▁успе 13251
▁hänet 13252
▁meeld 13253
▁tiden 13254
▁Thomas 13255
bav 13256
joj 13257
▁aer 13258
▁emp 13259
▁spē 13260
▁βοη 13261
ermin 13262
ticos 13263
▁spot 13264
▁varat 13265
▁aikana 13266
▁együtt 13267
▁prezent 13268
ruč 13269
īju 13270
žiť 13271
вия 13272
зпе 13273
юся 13274
iran 13275
plic 13276
▁Žel 13277
▁bist 13278
▁имат 13279
▁glede 13280
▁zelfs 13281
▁câteva 13282
▁najlep 13283
▁Ωστόσο 13284
sies 13285
▁dum 13286
gesch 13287
чного 13288
▁Huma 13289
▁Under 13290
▁appar 13291
▁level 13292
▁toutes 13293
▁introdu 13294
▁enquanto 13295
▁következő 13296
weg 13297
aría 13298
umat 13299
вить 13300
▁різ 13301
▁Kako 13302
▁rääk 13303
▁sine 13304
postav 13305
▁build 13306
▁certo 13307
▁jedin 13308
▁különb 13309
affarijiet 13310
lou 13311
λία 13312
ите 13313
▁mú 13314
vano 13315
έντε 13316
▁Yes 13317
▁kär 13318
▁mob 13319
▁sûr 13320
▁eyes 13321
▁sella 13322
▁change 13323
▁mondta 13324
▁probleem 13325
▁eigenlijk 13326
▁internation 13327
nin 13328
ofd 13329
γον 13330
tivi 13331
сили 13332
▁Not 13333
▁Mums 13334
▁aħna 13335
▁toet 13336
▁façon 13337
▁pomemb 13338
▁lucruri 13339
hå 13340
ρών 13341
▁öt 13342
▁ті 13343
enen 13344
qgħu 13345
▁cré 13346
▁Мар 13347
ajući 13348
posta 13349
▁Russ 13350
▁rije 13351
▁άλλα 13352
ically 13353
льного 13354
▁analiz 13355
▁λειτουργ 13356
mil 13357
γει 13358
лна 13359
atas 13360
rova 13361
▁Bez 13362
▁жен 13363
arsch 13364
porte 13365
ările 13366
▁Show 13367
▁žaid 13368
▁ihnen 13369
▁môžete 13370
žo 13371
ιώ 13372
pped 13373
▁επα 13374
arios 13375
ddiem 13376
льной 13377
▁espa 13378
▁καλά 13379
imenti 13380
▁разбира 13381
▁fantasti 13382
κέ 13383
erc 13384
▁цих 13385
onban 13386
▁hace 13387
▁neli 13388
▁nove 13389
▁tarp 13390
▁hotel 13391
▁lokal 13392
▁centro 13393
▁завжди 13394
▁potenti 13395
▁completamente 13396
niu 13397
vrt 13398
zzo 13399
ζει 13400
нку 13401
▁Ня 13402
skog 13403
тить 13404
▁pab 13405
▁vag 13406
▁вто 13407
▁эээ 13408
ining 13409
tiver 13410
▁Welt 13411
▁agen 13412
▁creș 13413
▁oček 13414
▁φορέ 13415
▁Harry 13416
▁enorme 13417
▁nodroš 13418
σή 13419
cka 13420
γρά 13421
ної 13422
ску 13423
▁pô 13424
żewġ 13425
▁saw 13426
▁vab 13427
▁Then 13428
▁dram 13429
▁její 13430
▁punk 13431
▁zero 13432
▁înce 13433
▁ütle 13434
ровать 13435
▁accep 13436
▁moins 13437
▁offer 13438
▁radio 13439
▁tapah 13440
▁bedoel 13441
▁postup 13442
▁sollte 13443
▁одного 13444
▁utilizz 13445
iah 13446
σμο 13447
otoj 13448
след 13449
▁Vad 13450
▁Vic 13451
▁uży 13452
▁Pirm 13453
▁blok 13454
▁kādu 13455
▁repr 13456
▁sera 13457
▁taas 13458
▁World 13459
▁dział 13460
▁enter 13461
▁saját 13462
▁súčas 13463
isuuden 13464
▁νομίζω 13465
▁funcion 13466
▁material 13467
ψε 13468
hui 13469
рії 13470
μένω 13471
▁Fir 13472
▁eas 13473
▁šte 13474
ление 13475
▁nist 13476
▁power 13477
▁valor 13478
▁naprej 13479
▁niveau 13480
▁практи 13481
hes 13482
μία 13483
рую 13484
icio 13485
inai 13486
izza 13487
onia 13488
ztat 13489
▁Rom 13490
▁Νομ 13491
ċjali 13492
▁Lady 13493
▁имам 13494
ського 13495
▁parād 13496
▁tills 13497
▁ludzie 13498
▁Хорошо 13499
▁governo 13500
▁interest 13501
vě 13502
zal 13503
гти 13504
лет 13505
▁ге 13506
▁см 13507
tävä 13508
▁еге 13509
▁ним 13510
aneet 13511
menti 13512
▁arch 13513
▁city 13514
▁medi 13515
▁прог 13516
▁dobré 13517
▁giver 13518
▁quest 13519
▁často 13520
▁увазі 13521
▁inħobb 13522
▁povedať 13523
▁national 13524
ген 13525
berg 13526
entu 13527
mand 13528
▁Wow 13529
▁fix 13530
▁spi 13531
▁spä 13532
▁tum 13533
jetno 13534
▁Sand 13535
▁Stor 13536
▁nell 13537
▁αυτέ 13538
ettiin 13539
▁orice 13540
▁ġener 13541
onsieur 13542
▁podría 13543
▁говоря 13544
età 13545
▁Що 13546
elte 13547
íííí 13548
▁elk 13549
▁jár 13550
▁клі 13551
годня 13552
▁esat 13553
▁furt 13554
▁kone 13555
▁pavy 13556
czenia 13557
▁chiam 13558
▁estas 13559
▁nisam 13560
▁таким 13561
issance 13562
▁кварта 13563
▁чолові 13564
▁discipl 13565
▁prijatel 13566
riż 13567
ēmu 13568
τία 13569
▁ře 13570
pett 13571
▁Pap 13572
▁Ved 13573
ujejo 13574
▁niem 13575
▁поди 13576
▁швид 13577
▁finde 13578
▁propr 13579
▁assist 13580
▁regard 13581
▁nothing 13582
▁εταιρεί 13583
▁Ξ 13584
lju 13585
tui 13586
íts 13587
лів 13588
ному 13589
▁eig 13590
▁læn 13591
▁zie 13592
▁зву 13593
▁bună 13594
▁clim 13595
▁turp 13596
▁знам 13597
kommen 13598
▁Smith 13599
▁means 13600
▁medzi 13601
▁drugih 13602
▁meillä 13603
▁projet 13604
▁simple 13605
▁сказав 13606
▁visiškai 13607
γη 13608
rouw 13609
▁zvy 13610
▁бра 13611
▁Hvad 13612
▁educ 13613
▁snel 13614
▁мину 13615
▁почу 13616
▁seven 13617
▁teile 13618
▁місце 13619
▁Теперь 13620
▁minulle 13621
▁vienmēr 13622
vs 13623
fie 13624
▁ül 13625
▁Пі 13626
alli 13627
tedy 13628
даря 13629
жить 13630
▁inn 13631
▁kant 13632
▁vest 13633
▁самы 13634
чество 13635
▁kartą 13636
▁mondo 13637
▁schon 13638
▁schop 13639
▁soort 13640
▁alcuni 13641
▁týchto 13642
ué 13643
▁ț 13644
ská 13645
еди 13646
zung 13647
▁gyv 13648
▁sli 13649
▁Для 13650
isuus 13651
менти 13652
пуска 13653
▁cabe 13654
▁daqs 13655
▁кого 13656
▁atsak 13657
▁bedre 13658
▁pavad 13659
▁Christ 13660
▁raport 13661
▁tietysti 13662
żu 13663
mål 13664
ЕЙЕЙ 13665
нали 13666
▁Maj 13667
▁erő 13668
▁moe 13669
deset 13670
petto 13671
rière 13672
▁mala 13673
▁mees 13674
▁niso 13675
prowad 13676
▁måske 13677
▁slags 13678
▁създа 13679
▁autres 13680
ăs 13681
ντο 13682
▁læ 13683
heen 13684
▁gas 13685
▁čer 13686
▁διε 13687
▁mówi 13688
▁play 13689
▁απλώ 13690
▁condu 13691
▁hozzá 13692
▁amerik 13693
▁ніколи 13694
iru 13695
▁Nå 13696
обще 13697
▁Gru 13698
eraus 13699
▁sper 13700
▁Diese 13701
▁pokuš 13702
▁всего 13703
▁посмо 13704
▁nevoie 13705
▁respec 13706
▁никогда 13707
idd 13708
▁dy 13709
ġdid 13710
ħoss 13711
▁Ham 13712
▁jah 13713
▁ügy 13714
▁безо 13715
endada 13716
▁kanal 13717
▁rekla 13718
▁zobac 13719
▁добро 13720
▁поддер 13721
▁ihmiset 13722
▁privește 13723
▁transpar 13724
ισε 13725
μει 13726
▁χώ 13727
▁цю 13728
opol 13729
▁nye 13730
▁Így 13731
▁επό 13732
chádz 13733
kning 13734
ujemo 13735
▁figy 13736
▁kbir 13737
▁povz 13738
▁rekl 13739
andien 13740
▁weißt 13741
▁Euroop 13742
▁alltid 13743
▁kandid 13744
▁season 13745
▁στιγμή 13746
▁interpr 13747
▁pitäisi 13748
▁determin 13749
μί 13750
eff 13751
him 13752
▁út 13753
endu 13754
▁Dor 13755
▁Mol 13756
▁Nar 13757
▁eer 13758
▁šīs 13759
▁allí 13760
umenti 13761
▁Nakon 13762
▁juuri 13763
▁sklad 13764
▁koliko 13765
▁record 13766
▁razmišlj 13767
pte 13768
rek 13769
σαι 13770
▁δω 13771
ποτα 13772
▁Dod 13773
▁nir 13774
▁мог 13775
▁asia 13776
▁meio 13777
▁пита 13778
▁ismer 13779
▁seinen 13780
▁tačiau 13781
▁valmis 13782
▁четири 13783
▁arbejde 13784
hs 13785
δό 13786
rán 13787
ába 13788
ārt 13789
▁fru 13790
▁gor 13791
▁ink 13792
▁îmi 13793
suite 13794
vesti 13795
θηκαν 13796
στηκε 13797
▁всех 13798
▁Green 13799
▁rezer 13800
ací 13801
gus 13802
▁Ευ 13803
njih 13804
▁jól 13805
▁wis 13806
ibile 13807
icial 13808
ėčiau 13809
▁perc 13810
▁seen 13811
▁siden 13812
▁zákaz 13813
▁имаме 13814
▁kuriuos 13815
▁segundo 13816
δρο 13817
▁Gos 13818
▁Lee 13819
▁iza 13820
▁stø 13821
▁tih 13822
▁Kien 13823
▁êtes 13824
▁реши 13825
▁House 13826
▁kbira 13827
▁будут 13828
▁plaats 13829
▁Parlamento 13830
δέ 13831
zić 13832
тон 13833
▁кі 13834
bres 13835
ħall 13836
▁rád 13837
oston 13838
гапур 13839
▁nouv 13840
▁štud 13841
wiście 13842
▁intens 13843
▁secret 13844
▁страте 13845
▁energia 13846
θώ 13847
ark 13848
nel 13849
ťast 13850
▁Dup 13851
▁dwa 13852
▁iva 13853
▁kih 13854
jourd 13855
▁bede 13856
▁wäre 13857
tioner 13858
▁Henry 13859
▁polov 13860
▁svarb 13861
▁virtu 13862
▁transform 13863
▁forskellige 13864
ünd 13865
λού 13866
нее 13867
icul 13868
ioje 13869
klar 13870
olut 13871
▁dól 13872
▁παν 13873
łości 13874
видно 13875
▁Ford 13876
▁huis 13877
▁műkö 13878
▁tény 13879
▁vijf 13880
▁Όταν 13881
▁роди 13882
▁imper 13883
▁lenne 13884
▁minna 13885
▁parec 13886
▁αυτόν 13887
▁quiero 13888
▁konflik 13889
▁empresas 13890
▁tecnolog 13891
ąc 13892
auj 13893
шей 13894
▁bos 13895
▁egen 13896
▁kill 13897
▁terr 13898
▁wahr 13899
▁посе 13900
▁campo 13901
▁szolg 13902
▁техно 13903
▁destul 13904
▁galven 13905
▁nostru 13906
▁підтри 13907
нт 13908
ijų 13909
țel 13910
▁ew 13911
bere 13912
omme 13913
raft 13914
tság 13915
ήσει 13916
▁vap 13917
▁raha 13918
zdžiui 13919
ктивно 13920
▁halua 13921
▁odpov 13922
▁säger 13923
▁zināt 13924
▁vissza 13925
▁został 13926
▁krijgen 13927
▁πρόκειται 13928
bbi 13929
łeś 13930
kach 13931
▁præ 13932
▁τρο 13933
▁gele 13934
▁unei 13935
▁року 13936
▁pomag 13937
▁vieną 13938
▁cualqu 13939
▁father 13940
▁μεταξύ 13941
▁possono 13942
▁reiškia 13943
▁zusammen 13944
xit 13945
▁ör 13946
ilig 13947
átor 13948
ítés 13949
šina 13950
θεση 13951
▁jok 13952
▁вой 13953
atore 13954
teurs 13955
вість 13956
▁hlas 13957
▁rätt 13958
▁svou 13959
▁środ 13960
iseksi 13961
▁South 13962
▁alati 13963
▁narod 13964
▁toget 13965
▁μέχρι 13966
▁direkt 13967
▁realtà 13968
▁включа 13969
▁Charles 13970
,' 13971
OR 13972
uu 13973
cję 13974
ván 13975
μορ 13976
brit 13977
edig 13978
ieku 13979
zten 13980
▁Att 13981
▁sog 13982
pital 13983
▁поді 13984
▁твър 13985
вления 13986
▁Detta 13987
▁ajatt 13988
▁vakar 13989
▁almost 13990
▁contre 13991
▁написа 13992
▁Εντάξει 13993
sko 13994
λια 13995
дми 13996
reau 13997
ását 13998
▁Što 13999
▁Син 14000
owany 14001
▁Part 14002
▁Ties 14003
▁denn 14004
▁lisä 14005
▁okam 14006
▁sess 14007
▁tööt 14008
▁wiel 14009
▁žele 14010
ležité 14011
▁altid 14012
▁arbet 14013
▁esses 14014
▁ettev 14015
▁katso 14016
▁conven 14017
▁proprio 14018
рия 14019
так 14020
ebda 14021
liec 14022
tens 14023
▁Far 14024
esper 14025
itelj 14026
xtieq 14027
ymmen 14028
ствия 14029
▁bety 14030
▁dvad 14031
▁skor 14032
ravers 14033
▁claro 14034
▁conos 14035
▁nisem 14036
▁počet 14037
▁simil 14038
▁volte 14039
▁конку 14040
▁произво 14041
ruž 14042
сім 14043
izio 14044
ποτε 14045
ваше 14046
▁Nev 14047
▁jop 14048
▁ťaž 14049
▁mulț 14050
▁rých 14051
▁andet 14052
▁susij 14053
▁tweede 14054
▁diversi 14055
▁embargo 14056
▁vielleicht 14057
ict 14058
▁bě 14059
quoi 14060
rauk 14061
siet 14062
▁naħ 14063
▁žal 14064
▁arti 14065
▁jota 14066
▁smer 14067
▁tais 14068
ojatno 14069
▁autob 14070
▁passer 14071
▁provin 14072
▁todell 14073
▁mientras 14074
iad 14075
hers 14076
ikko 14077
▁käs 14078
▁мой 14079
▁brug 14080
▁hoje 14081
▁muud 14082
▁nema 14083
▁саме 14084
▁Tomēr 14085
▁ktorú 14086
▁места 14087
▁mellem 14088
▁seguir 14089
▁algunos 14090
▁rapport 14091
In 14092
đe 14093
ėg 14094
тим 14095
aman 14096
mare 14097
чого 14098
iends 14099
▁ακού 14100
▁επικ 14101
▁поми 14102
aliśmy 14103
▁Evrop 14104
▁czasu 14105
▁χρόνο 14106
▁dotycz 14107
áš 14108
óz 14109
sať 14110
θει 14111
має 14112
▁φί 14113
cont 14114
eltä 14115
stüt 14116
ével 14117
гава 14118
▁nya 14119
▁βασ 14120
▁Chic 14121
▁keep 14122
▁wind 14123
▁паза 14124
▁deber 14125
▁mivel 14126
▁κάποια 14127
▁μπορούν 14128
cké 14129
īta 14130
▁fø 14131
▁ll 14132
aken 14133
nike 14134
чних 14135
▁pek 14136
igare 14137
λευτα 14138
▁eset 14139
▁masă 14140
▁teor 14141
▁umož 14142
▁simples 14143
ħin 14144
▁ща 14145
eget 14146
rost 14147
▁Hur 14148
▁Spo 14149
▁ház 14150
▁při 14151
▁ænd 14152
▁ενώ 14153
▁spoj 14154
▁talk 14155
▁Richard 14156
bez 14157
ips 14158
ākā 14159
лка 14160
▁Га 14161
amin 14162
auti 14163
wart 14164
▁Qui 14165
ently 14166
▁gett 14167
▁gust 14168
▁primo 14169
▁práce 14170
▁numero 14171
▁perfor 14172
▁potenci 14173
riz 14174
▁pj 14175
▁tą 14176
aupt 14177
elin 14178
ρική 14179
▁връ 14180
▁larg 14181
▁vost 14182
▁věci 14183
▁ξεκι 14184
▁парт 14185
▁joita 14186
▁počas 14187
▁Когда 14188
ankollu 14189
▁existe 14190
▁Когато 14191
▁насправді 14192
uš 14193
isy 14194
nić 14195
ąda 14196
auen 14197
loud 14198
unds 14199
γραφ 14200
▁Leg 14201
▁Spe 14202
▁tér 14203
ciona 14204
▁Ever 14205
▁izgu 14206
▁kamp 14207
▁sekä 14208
▁víde 14209
▁этих 14210
ivanje 14211
▁dobře 14212
▁назад 14213
▁potrebbe 14214
φυ 14215
esť 14216
lát 14217
nea 14218
opo 14219
qua 14220
viv 14221
éli 14222
għin 14223
ként 14224
omin 14225
wohl 14226
▁Pog 14227
▁šie 14228
▁έλα 14229
▁Раз 14230
eligt 14231
▁Creo 14232
▁cann 14233
▁sena 14234
▁γυνα 14235
▁χωρί 14236
▁меди 14237
▁Apple 14238
▁capit 14239
▁olika 14240
▁samma 14241
▁σπίτι 14242
▁modern 14243
▁možemo 14244
▁semana 14245
▁človek 14246
▁Commiss 14247
▁together 14248
ποί 14249
ρων 14250
▁Mô 14251
ärsk 14252
▁Kot 14253
▁cob 14254
▁fél 14255
▁zde 14256
▁čud 14257
▁γεν 14258
▁εκα 14259
ților 14260
▁Matt 14261
▁kier 14262
▁неве 14263
▁Leben 14264
▁dohod 14265
▁goede 14266
▁inden 14267
▁lietas 14268
▁stesso 14269
▁следва 14270
▁terwijl 14271
βη 14272
gia 14273
änn 14274
ħdu 14275
▁Wy 14276
upra 14277
▁Del 14278
▁May 14279
▁Poz 14280
▁bac 14281
▁rie 14282
▁zon 14283
▁ενό 14284
isiis 14285
ників 14286
▁dzīv 14287
▁glad 14288
▁poja 14289
▁trze 14290
▁atbal 14291
▁прямо 14292
▁atbild 14293
▁includ 14294
▁musíme 14295
▁διαφορε 14296
ash 14297
īti 14298
шло 14299
usse 14300
znak 14301
ából 14302
ктор 14303
▁edu 14304
▁ime 14305
▁lem 14306
▁šal 14307
stven 14308
ullie 14309
šanje 14310
▁Phil 14311
▁geme 14312
▁poți 14313
▁pras 14314
▁vaiz 14315
▁zlep 14316
esehen 14317
▁selles 14318
▁нашите 14319
▁τελευτα 14320
▁represent 14321
ytų 14322
δικ 14323
нет 14324
▁Πο 14325
jući 14326
čili 14327
▁vih 14328
▁yli 14329
ither 14330
lagen 14331
▁atra 14332
▁duas 14333
▁cours 14334
▁given 14335
▁laiku 14336
▁movie 14337
▁pedig 14338
▁także 14339
▁guerra 14340
▁kurios 14341
▁παιδιά 14342
▁marketing 14343
▁: 14344
▁ι 14345
gew 14346
kea 14347
σσε 14348
нти 14349
annt 14350
liwo 14351
мене 14352
▁będą 14353
▁near 14354
▁přij 14355
▁slav 14356
▁taħt 14357
▁körül 14358
▁viene 14359
tavasti 14360
▁during 14361
▁jotain 14362
▁Niisiis 14363
▁nagħmel 14364
ee 14365
atl 14366
ców 14367
лиш 14368
▁Ši 14369
iena 14370
áció 14371
čení 14372
▁Geb 14373
▁Wil 14374
▁prø 14375
▁обу 14376
ichni 14377
odien 14378
robiť 14379
▁Stan 14380
▁komt 14381
raient 14382
▁saist 14383
▁важно 14384
▁gezien 14385
▁inspir 14386
▁tussen 14387
▁servici 14388
▁κάνουμε 14389
ění 14390
▁νό 14391
▁huv 14392
▁Επι 14393
▁клю 14394
ovima 14395
rojām 14396
▁aggi 14397
▁days 14398
▁gana 14399
▁rund 14400
▁sold 14401
▁Greek 14402
▁mnoho 14403
▁tohto 14404
▁impact 14405
▁koment 14406
▁komple 14407
▁hemmhekk 14408
tis 14409
ták 14410
λισ 14411
▁αξ 14412
▁πω 14413
arth 14414
eler 14415
szön 14416
ники 14417
▁môj 14418
▁Пре 14419
▁вне 14420
държа 14421
▁Gran 14422
▁dlou 14423
▁hver 14424
▁lead 14425
▁ystä 14426
▁ćete 14427
▁įraš 14428
▁Vamos 14429
▁către 14430
▁terra 14431
▁Νομίζω 14432
▁unserer 14433
őd 14434
hum 14435
niť 14436
ped 14437
tie 14438
τισ 14439
нди 14440
▁iP 14441
níci 14442
стей 14443
стрі 14444
цать 14445
▁Big 14446
▁Cho 14447
▁pož 14448
▁vyd 14449
chtig 14450
τικού 14451
▁alto 14452
▁atgr 14453
▁зада 14454
▁laika 14455
▁vedea 14456
liament 14457
▁percent 14458
▁sellele 14459
▁anything 14460
δύ 14461
nev 14462
upp 14463
été 14464
▁δο 14465
▁φω 14466
anii 14467
nung 14468
orer 14469
▁pau 14470
▁ung 14471
▁fünf 14472
kunsid 14473
▁ieħor 14474
▁irány 14475
▁ongel 14476
▁padre 14477
▁tarde 14478
▁puteți 14479
esn 14480
omb 14481
ický 14482
jima 14483
pade 14484
wiek 14485
леда 14486
▁oud 14487
▁Zdaj 14488
▁lika 14489
▁mnoh 14490
▁vere 14491
▁Αυτή 14492
▁Texas 14493
▁venit 14494
▁ország 14495
▁основно 14496
▁responsabil 14497
dak 14498
āko 14499
гов 14500
лов 14501
▁зе 14502
▁Mūs 14503
▁Rek 14504
▁Spa 14505
inink 14506
▁nale 14507
▁této 14508
▁Τώρα 14509
▁комп 14510
▁prend 14511
▁times 14512
▁tässä 14513
чително 14514
▁United 14515
▁gedaan 14516
▁muitos 14517
▁τίποτα 14518
ăzi 14519
кро 14520
▁ен 14521
jist 14522
tele 14523
čiai 14524
▁daļa 14525
▁nope 14526
▁Austr 14527
▁chaque 14528
▁henkil 14529
▁prakti 14530
▁blijven 14531
▁translat 14532
lă 14533
lez 14534
rig 14535
зом 14536
лят 14537
atto 14538
▁pys 14539
▁võr 14540
▁îți 14541
▁ему 14542
ettek 14543
gleda 14544
▁leng 14545
▁proc 14546
▁имею 14547
ciendo 14548
▁miesz 14549
▁держа 14550
мерикан 14551
▁County 14552
▁eksper 14553
▁którym 14554
▁przysz 14555
▁systém 14556
▁sociale 14557
▁mogelijk 14558
ffa 14559
naj 14560
ält 14561
▁ix 14562
ször 14563
рами 14564
▁уби 14565
ākais 14566
▁alko 14567
▁lide 14568
▁okay 14569
▁plán 14570
▁vall 14571
▁живе 14572
keiten 14573
▁State 14574
▁basis 14575
▁domin 14576
▁hoved 14577
▁prakt 14578
▁siger 14579
вається 14580
▁wanted 14581
▁Komisija 14582
▁affarijiet 14583
▁profession 14584
jsk 14585
oje 14586
sas 14587
vap 14588
ynd 14589
ств 14590
adel 14591
avel 14592
here 14593
iamo 14594
vant 14595
▁Bil 14596
▁erb 14597
▁knj 14598
▁тъй 14599
ionen 14600
μένοι 14601
▁môžu 14602
▁прин 14603
▁живот 14604
▁galima 14605
▁profit 14606
▁svojim 14607
▁теперь 14608
▁American 14609
▁continua 14610
gur 14611
lob 14612
▁bä 14613
▁Ла 14614
erve 14615
work 14616
▁Lad 14617
▁näch 14618
▁spēl 14619
▁tred 14620
▁Proto 14621
▁sotto 14622
▁weten 14623
▁innych 14624
▁прибли 14625
▁процес 14626
▁започна 14627
ēģ 14628
яв 14629
sez 14630
ümm 14631
кну 14632
маю 14633
jung 14634
ptăm 14635
▁flo 14636
▁ήθε 14637
▁сей 14638
eline 14639
jenza 14640
light 14641
ätter 14642
ского 14643
▁tvrt 14644
▁žens 14645
▁семь 14646
▁erity 14647
▁затем 14648
▁medida 14649
▁muitas 14650
▁ustvar 14651
▁μπορούσε 14652
▁Kommission 14653
sts 14654
▁lì 14655
odob 14656
вили 14657
▁dés 14658
▁squ 14659
osság 14660
▁Mike 14661
▁aihe 14662
avanje 14663
▁biste 14664
▁domov 14665
▁situa 14666
▁skaid 14667
▁vesel 14668
▁juurde 14669
▁сьогодні 14670
nju 14671
▁Cal 14672
▁Nun 14673
▁αρέ 14674
▁σκο 14675
▁wiem 14676
xogħol 14677
▁försö 14678
▁jusqu 14679
▁repre 14680
▁saber 14681
▁деякі 14682
▁daryti 14683
▁muchos 14684
▁puedes 14685
▁всегда 14686
▁предоста 14687
ěk 14688
κτη 14689
veck 14690
λικά 14691
▁ena 14692
▁kob 14693
▁neu 14694
▁tém 14695
▁Дру 14696
mento 14697
▁Main 14698
▁Tech 14699
▁Wind 14700
▁kopā 14701
▁site 14702
▁πρόσ 14703
▁году 14704
▁тебе 14705
▁dagen 14706
▁nincs 14707
▁tugev 14708
▁разли 14709
▁budete 14710
▁einmal 14711
▁között 14712
▁return 14713
▁visada 14714
▁интере 14715
▁продовжу 14716
▁experiment 14717
EL 14718
die 14719
itz 14720
nec 14721
tej 14722
ēti 14723
▁scu 14724
▁žen 14725
▁αργ 14726
▁Coun 14727
▁наме 14728
▁Hvala 14729
▁Todėl 14730
▁ogrom 14731
▁recom 14732
▁whole 14733
▁αγορά 14734
▁запита 14735
▁comport 14736
▁resnično 14737
føl 14738
iar 14739
шла 14740
▁cy 14741
chos 14742
ciał 14743
cing 14744
illo 14745
ského 14746
▁fact 14747
▁hind 14748
▁mese 14749
▁neil 14750
▁Potom 14751
▁fácil 14752
▁причи 14753
▁područ 14754
▁Europos 14755
▁niekada 14756
dza 14757
oge 14758
rát 14759
tez 14760
αιρε 14761
▁eel 14762
▁okr 14763
ность 14764
▁razv 14765
▁Austral 14766
gru 14767
viä 14768
ūra 14769
ριβ 14770
▁sö 14771
ější 14772
ħans 14773
▁ruk 14774
▁își 14775
▁дву 14776
▁hope 14777
▁odst 14778
▁trži 14779
▁žena 14780
itelji 14781
schein 14782
▁možno 14783
▁night 14784
▁tajba 14785
▁Arbeit 14786
ħansitra 14787
▁negativ 14788
▁segment 14789
olf 14790
rif 14791
τευ 14792
▁Pi 14793
amai 14794
▁grį 14795
▁nød 14796
▁Hill 14797
▁caus 14798
▁čini 14799
▁ξανά 14800
▁φορά 14801
▁разо 14802
deauna 14803
endben 14804
▁ihrer 14805
▁kiedy 14806
скольку 14807
:' 14808
âng 14809
čiť 14810
anse 14811
atra 14812
itch 14813
ljed 14814
mmär 14815
čite 14816
будь 14817
вает 14818
іння 14819
▁său 14820
▁vej 14821
▁сім 14822
emist 14823
estra 14824
нення 14825
▁Dawn 14826
▁După 14827
▁enda 14828
▁nämä 14829
▁pane 14830
▁újra 14831
▁Dobře 14832
▁emplo 14833
▁heard 14834
▁macht 14835
▁tohoto 14836
▁urobiť 14837
lē 14838
nā 14839
Qué 14840
edz 14841
▁Fi 14842
ektor 14843
ρειάζ 14844
ський 14845
▁będz 14846
▁diag 14847
▁lidí 14848
▁nest 14849
▁odlu 14850
▁rank 14851
▁dolog 14852
▁mogao 14853
chester 14854
▁series 14855
▁zorgen 14856
▁никога 14857
▁respect 14858
▁joprojām 14859
atsächlich 14860
▁ķ 14861
zyw 14862
öző 14863
▁Би 14864
czyć 14865
odda 14866
étel 14867
▁adv 14868
ujemy 14869
▁Just 14870
▁frag 14871
▁drept 14872
▁văzut 14873
▁назва 14874
▁Amazon 14875
▁parler 14876
▁števil 14877
▁настоя 14878
őt 14879
wic 14880
bili 14881
гово 14882
▁doz 14883
▁raj 14884
▁вот 14885
▁хло 14886
ństwa 14887
▁Tudo 14888
▁cier 14889
▁cine 14890
▁mans 14891
▁rigu 14892
vision 14893
ójában 14894
▁effec 14895
▁kamer 14896
▁sekund 14897
▁význam 14898
▁posibil 14899
▁pārliec 14900
egd 14901
▁Ga 14902
▁tř 14903
πήρχ 14904
▁ați 14905
ления 14906
▁Graz 14907
▁aega 14908
▁girl 14909
▁klin 14910
▁less 14911
ieties 14912
▁kijken 14913
▁możesz 14914
▁відкри 14915
▁identific 14916
kad 14917
део 14918
▁Gi 14919
▁Τι 14920
dyti 14921
enos 14922
līdz 14923
oriť 14924
είτε 14925
κανε 14926
itada 14927
▁enti 14928
▁nees 14929
▁ries 14930
▁sand 14931
▁ώστε 14932
▁These 14933
▁brand 14934
▁cinci 14935
▁olete 14936
▁tiedä 14937
▁atrodo 14938
▁ciudad 14939
▁demand 14940
▁ganska 14941
▁mellan 14942
scy 14943
zas 14944
περ 14945
рей 14946
▁rä 14947
inea 14948
ving 14949
дете 14950
▁Mož 14951
▁hud 14952
▁lun 14953
▁бил 14954
▁оча 14955
▁enne 14956
▁flex 14957
▁ίδιο 14958
▁заме 14959
▁atrodas 14960
▁invester 14961
šti 14962
λλη 14963
zyst 14964
▁Alg 14965
▁Yor 14966
▁beb 14967
▁lép 14968
erade 14969
čnosť 14970
▁dużo 14971
▁lauk 14972
▁vaad 14973
▁color 14974
▁darīt 14975
▁heart 14976
▁kienx 14977
▁mente 14978
▁ligger 14979
▁δουλει 14980
νι 14981
fas 14982
oci 14983
шно 14984
▁Võ 14985
▁оп 14986
жете 14987
tavam 14988
▁dort 14989
▁pouv 14990
▁Għand 14991
▁Myślę 14992
▁Ukoll 14993
▁priek 14994
▁račun 14995
▁servi 14996
▁încât 14997
▁offent 14998
▁patiesībā 14999
wal 15000
ške 15001
λαν 15002
▁Yo 15003
šķir 15004
▁Nou 15005
▁гор 15006
▁рам 15007
gelse 15008
▁hlad 15009
▁hora 15010
▁reći 15011
▁били 15012
▁alors 15013
▁klass 15014
▁tutte 15015
▁jednom 15016
▁jagħmel 15017
amu 15018
paj 15019
zne 15020
кін 15021
alec 15022
iect 15023
μουν 15024
▁Gen 15025
▁Lie 15026
▁Mam 15027
▁Ned 15028
▁krá 15029
▁lys 15030
punkt 15031
siasi 15032
ėjome 15033
ίνουν 15034
▁blir 15035
▁evit 15036
▁fais 15037
czenie 15038
ümmend 15039
▁agent 15040
▁geven 15041
▁hason 15042
▁partir 15043
▁siellä 15044
▁μεγάλη 15045
▁televiz 15046
chs 15047
orr 15048
ěst 15049
▁OK 15050
▁ade 15051
▁ryn 15052
owego 15053
▁Qual 15054
▁προσπα 15055
▁доступ 15056
▁подоба 15057
▁postoji 15058
▁waarsch 15059
ană 15060
óri 15061
ătă 15062
šlo 15063
orti 15064
riff 15065
ufen 15066
ught 15067
ügyi 15068
ворю 15069
чени 15070
▁Kop 15071
▁очі 15072
ilyen 15073
ittää 15074
äller 15075
ācija 15076
гляда 15077
▁Plan 15078
▁dług 15079
▁όλοι 15080
▁obdob 15081
▁andare 15082
▁coment 15083
▁jednot 15084
▁mechan 15085
▁spørgs 15086
czywiście 15087
▁President 15088
owo 15089
гие 15090
▁δι 15091
bind 15092
iċli 15093
rane 15094
гази 15095
жида 15096
▁Biz 15097
▁Out 15098
▁Sud 15099
intas 15100
τικών 15101
▁Nagy 15102
▁poka 15103
▁täna 15104
▁κάτω 15105
▁minul 15106
▁przek 15107
▁stret 15108
▁відбу 15109
▁future 15110
▁jullie 15111
▁sarebbe 15112
▁document 15113
▁pierwszy 15114
▁attravers 15115
bul 15116
day 15117
pły 15118
vus 15119
ůst 15120
шки 15121
▁cô 15122
ição 15123
▁Zap 15124
▁дос 15125
ustel 15126
▁Fall 15127
▁doga 15128
▁hetk 15129
▁inkl 15130
▁tari 15131
▁κάνω 15132
amenti 15133
▁Porque 15134
▁tempor 15135
▁vuoden 15136
▁намага 15137
▁digital 15138
▁dólares 15139
▁komplet 15140
▁siempre 15141
▁sollten 15142
▁vidjeti 15143
▁diffiċli 15144
▁Ю 15145
cal 15146
emd 15147
gle 15148
ūst 15149
iene 15150
▁поя 15151
roveň 15152
▁Jeff 15153
▁Need 15154
▁dine 15155
▁regi 15156
▁spal 15157
ustada 15158
▁heute 15159
▁molti 15160
▁obrov 15161
▁мають 15162
▁таких 15163
▁darauf 15164
▁enough 15165
▁número 15166
pj 15167
lec 15168
джу 15169
elas 15170
hely 15171
mier 15172
мира 15173
▁Kur 15174
żmien 15175
▁Sada 15176
▁card 15177
▁tiġi 15178
▁žiūr 15179
imkien 15180
▁malaj 15181
▁often 15182
▁κάνετε 15183
▁aproxim 15184
▁dotyczą 15185
▁several 15186
▁vagyunk 15187
pok 15188
sah 15189
fund 15190
iniu 15191
nila 15192
wiad 15193
wick 15194
▁hra 15195
▁sug 15196
▁tex 15197
▁både 15198
▁ness 15199
▁styr 15200
▁Carol 15201
▁bolje 15202
▁niekt 15203
▁семей 15204
▁kommen 15205
▁naprav 15206
▁sembra 15207
▁turėtų 15208
▁процен 15209
▁сейчас 15210
▁manière 15211
▁quddiem 15212
OS 15213
oa 15214
łam 15215
шел 15216
▁Př 15217
▁δέ 15218
avan 15219
ácia 15220
zjoni 15221
▁empe 15222
▁encu 15223
▁наде 15224
ществу 15225
▁asked 15226
▁light 15227
▁recon 15228
▁Напри 15229
▁became 15230
▁těchto 15231
▁можемо 15232
▁робити 15233
▁premier 15234
▁beginnen 15235
▁eredmény 15236
▁tradition 15237
ác 15238
vej 15239
▁вя 15240
nell 15241
rage 15242
▁Nic 15243
▁oči 15244
ether 15245
rejme 15246
íklad 15247
грани 15248
▁biju 15249
▁dati 15250
▁kord 15251
▁počú 15252
▁pruž 15253
▁σίγου 15254
▁συμβα 15255
isation 15256
▁depuis 15257
▁environ 15258
py 15259
oud 15260
εντ 15261
▁dau 15262
▁déj 15263
▁ilu 15264
endet 15265
ituks 15266
richt 15267
ständ 15268
šanos 15269
▁lave 15270
▁otra 15271
▁piir 15272
▁pron 15273
▁savā 15274
bracht 15275
licher 15276
▁znovu 15277
▁amigos 15278
▁combin 15279
▁dzieci 15280
NA 15281
έα 15282
ckt 15283
kül 15284
sor 15285
uke 15286
wau 15287
▁ní 15288
orde 15289
puol 15290
takt 15291
ħtie 15292
μενη 15293
▁Dut 15294
▁Jes 15295
▁aeg 15296
▁εξε 15297
▁οδη 15298
ující 15299
▁dazu 15300
▁rych 15301
▁znan 15302
▁Коми 15303
▁нали 15304
siooni 15305
▁apart 15306
▁bisog 15307
▁hästi 15308
▁justi 15309
▁legis 15310
▁práci 15311
▁vaike 15312
▁дозво 15313
▁закон 15314
▁sljede 15315
▁diverse 15316
▁cualquier 15317
aza 15318
köz 15319
tel 15320
ikud 15321
vali 15322
vere 15323
▁ava 15324
▁dni 15325
▁elu 15326
▁pře 15327
etten 15328
ience 15329
μένων 15330
▁Nord 15331
▁bill 15332
▁chce 15333
▁felé 15334
▁sarà 15335
▁sted 15336
▁высо 15337
dešimt 15338
▁break 15339
▁imeli 15340
▁rendel 15341
▁znajdu 15342
▁ponovno 15343
▁использу 15344
agn 15345
kes 15346
нні 15347
roit 15348
tons 15349
віда 15350
▁Ide 15351
▁Two 15352
▁Uma 15353
▁atp 15354
▁plā 15355
▁vér 15356
▁Ста 15357
attle 15358
▁area 15359
▁tara 15360
▁видя 15361
▁йому 15362
▁Famil 15363
▁ezért 15364
▁since 15365
▁tuleb 15366
▁ακριβ 15367
▁komand 15368
▁further 15369
▁histori 15370
▁minister 15371
íg 15372
óm 15373
lač 15374
▁Kõ 15375
head 15376
hled 15377
onde 15378
skar 15379
▁eri 15380
▁uus 15381
iting 15382
níkov 15383
▁milj 15384
▁καλό 15385
▁tulee 15386
▁verso 15387
▁outras 15388
▁report 15389
színűleg 15390
▁Amerika 15391
▁betyder 15392
▁naszych 15393
▁Internet 15394
dew 15395
ātu 15396
▁шу 15397
itta 15398
onen 15399
▁Cla 15400
dinja 15401
inent 15402
ítása 15403
▁Među 15404
▁afac 15405
▁mají 15406
▁soon 15407
▁істо 15408
▁każdy 15409
▁otros 15410
▁stort 15411
▁tenía 15412
▁teror 15413
▁korist 15414
▁někter 15415
owiedział 15416
jm 15417
óź 15418
bna 15419
став 15420
▁Ist 15421
▁Num 15422
timos 15423
▁prep 15424
▁vred 15425
igkeit 15426
▁Insta 15427
▁stalo 15428
▁слова 15429
αίνεται 15430
▁elimin 15431
▁government 15432
AM 15433
wġ 15434
tec 15435
štu 15436
τυχ 15437
тин 15438
▁yl 15439
endt 15440
erek 15441
olas 15442
ären 15443
ρηση 15444
▁Ath 15445
▁Poč 15446
▁Raz 15447
▁aid 15448
▁mlu 15449
▁ειδ 15450
▁Jose 15451
▁Road 15452
▁cuid 15453
▁dich 15454
▁fråg 15455
▁nami 15456
▁nové 15457
▁razl 15458
▁spol 15459
▁väik 15460
▁стре 15461
δήποτε 15462
стання 15463
▁farlo 15464
▁gradu 15465
▁quite 15466
▁videl 15467
▁αντιμε 15468
▁прекра 15469
▁Twitter 15470
▁Portanto 15471
єм 15472
▁Ď 15473
but 15474
rīz 15475
wan 15476
āli 15477
ćen 15478
δου 15479
тят 15480
▁Μπ 15481
▁Pad 15482
ností 15483
нение 15484
стите 15485
▁bied 15486
▁juba 15487
▁αντα 15488
νονται 15489
▁Paris 15490
▁první 15491
▁vanda 15492
▁allura 15493
▁quatre 15494
▁järjest 15495
▁mention 15496
▁perspec 15497
▁National 15498
▁realidad 15499
ném 15500
sou 15501
öld 15502
▁kø 15503
▁їм 15504
gene 15505
ikal 15506
inau 15507
inek 15508
kaar 15509
niku 15510
▁Hab 15511
▁Hor 15512
▁Sto 15513
▁fle 15514
▁sop 15515
▁сам 15516
▁убе 15517
isuud 15518
▁Toto 15519
▁euró 15520
▁запи 15521
anneer 15522
▁betyd 15523
▁relat 15524
▁rokov 15525
▁rossz 15526
▁stare 15527
▁säker 15528
▁temat 15529
▁turėjo 15530
▁πιστεύ 15531
▁σήμερα 15532
▁магази 15533
▁полови 15534
▁jooksul 15535
▁lorsque 15536
▁инвести 15537
▁cilvēkiem 15538
▁saħansitra 15539
ený 15540
spr 15541
ytä 15542
esom 15543
▁Bay 15544
▁Vil 15545
▁bät 15546
▁oce 15547
▁tev 15548
▁Επί 15549
usele 15550
ítani 15551
нього 15552
▁sour 15553
▁atkal 15554
▁begon 15555
▁lasci 15556
▁magas 15557
▁piace 15558
▁розпо 15559
▁valits 15560
▁verand 15561
▁трудно 15562
▁fonction 15563
пя 15564
τεο 15565
▁cí 15566
▁tė 15567
hlas 15568
▁Tim 15569
▁ise 15570
▁trä 15571
▁сви 15572
▁sabi 15573
▁sche 15574
▁skon 15575
▁slab 15576
▁učen 15577
▁allow 15578
▁passi 15579
▁públi 15580
ministr 15581
▁bättre 15582
▁izskat 15583
▁spremen 15584
▁είμαστε 15585
▁wszystkich 15586
nk 15587
rän 15588
ņoj 15589
нат 15590
▁Θε 15591
róci 15592
wiet 15593
λέον 15594
▁baš 15595
▁váš 15596
▁δει 15597
▁Ukra 15598
▁ball 15599
▁coll 15600
▁neke 15601
▁szyb 15602
▁θέση 15603
▁hoofd 15604
▁plant 15605
▁sprav 15606
▁wielu 15607
▁своей 15608
▁nature 15609
▁собстве 15610
▁představ 15611
▁например 15612
rh 15613
fér 15614
jur 15615
δόν 15616
тай 15617
τητε 15618
▁Bru 15619
▁Zat 15620
ătate 15621
▁Evro 15622
▁laim 15623
▁sala 15624
▁vidé 15625
▁συμφ 15626
▁едно 15627
▁kolej 15628
▁nikad 15629
▁outra 15630
▁Martin 15631
▁подума 15632
▁oluline 15633
▁clientes 15634
▁оскільки 15635
▁Ul 15636
▁Dal 15637
▁Fol 15638
▁bib 15639
▁dvě 15640
▁mål 15641
▁Στο 15642
▁συζ 15643
icher 15644
oties 15645
ovalo 15646
▁geld 15647
▁vuos 15648
▁δημο 15649
▁дося 15650
▁Frank 15651
▁douce 15652
▁kurią 15653
▁talle 15654
▁hombre 15655
▁megfel 15656
▁meaning 15657
▁poderia 15658
▁possibil 15659
ën 15660
ġu 15661
дж 15662
▁Ř 15663
tip 15664
сил 15665
▁Put 15666
▁olu 15667
▁alta 15668
▁τότε 15669
▁няка 15670
▁efekt 15671
▁filmu 15672
▁küsim 15673
▁metod 15674
▁позна 15675
версите 15676
▁trecut 15677
▁jkomplu 15678
▁οικονομ 15679
▁tehnolog 15680
χύ 15681
rir 15682
вою 15683
ями 15684
agne 15685
kost 15686
olid 15687
ress 15688
▁Rod 15689
▁επο 15690
konom 15691
ρκεια 15692
ότερα 15693
▁Nast 15694
▁szól 15695
▁vieš 15696
▁voin 15697
▁Știi 15698
▁смер 15699
▁mohou 15700
▁Думаю 15701
▁genere 15702
▁zouden 15703
▁enfants 15704
dí 15705
czę 15706
iza 15707
kih 15708
λικ 15709
дви 15710
▁Zu 15711
icky 15712
zyma 15713
ρωπα 15714
▁bie 15715
▁rug 15716
▁čty 15717
cture 15718
etään 15719
▁huom 15720
▁kuts 15721
▁oraz 15722
▁pave 15723
▁slob 15724
▁alatt 15725
▁μικρό 15726
▁frente 15727
▁prepri 15728
▁політи 15729
▁företag 15730
▁probably 15731
▁suurepär 15732
sam 15733
önt 15734
τιά 15735
jent 15736
otud 15737
▁mög 15738
▁ond 15739
▁ανο 15740
ettem 15741
▁lidé 15742
▁oraș 15743
▁grupo 15744
▁kirjo 15745
▁aastal 15746
▁hablar 15747
ET 15748
æng 15749
κτή 15750
мку 15751
▁Né 15752
amnă 15753
esni 15754
ării 15755
кога 15756
▁cią 15757
▁дов 15758
▁эта 15759
ances 15760
usias 15761
ījumu 15762
льных 15763
▁csap 15764
▁deja 15765
▁dolo 15766
▁kein 15767
▁krás 15768
▁lear 15769
▁onge 15770
▁veic 15771
▁úžas 15772
▁člen 15773
▁дола 15774
▁член 15775
szyscy 15776
▁myślę 15777
▁takie 15778
▁woman 15779
▁согла 15780
▁conduc 15781
▁drugim 15782
▁понима 15783
▁пример 15784
▁способ 15785
▁všechno 15786
ács 15787
мой 15788
▁io 15789
▁Ло 15790
anci 15791
rier 15792
valt 15793
▁Nyt 15794
▁cít 15795
▁lég 15796
▁sew 15797
▁váž 15798
ierte 15799
ități 15800
tivat 15801
▁Mill 15802
▁läks 15803
▁uvid 15804
▁часу 15805
▁divid 15806
▁kysym 15807
▁sinun 15808
▁свого 15809
▁perfect 15810
▁belangrij 15811
▁jednostav 15812
▁σημαντικό 15813
gå 15814
из 15815
czu 15816
luš 15817
rim 15818
sna 15819
uso 15820
▁øn 15821
aban 15822
ells 15823
onne 15824
owym 15825
vall 15826
▁Joy 15827
▁Kam 15828
▁vlá 15829
▁υπη 15830
▁όμω 15831
endab 15832
inama 15833
nikov 15834
onces 15835
рован 15836
▁Kont 15837
▁Niek 15838
▁fino 15839
▁głów 15840
▁nemô 15841
▁этим 15842
uttost 15843
▁aplic 15844
▁személy 15845
▁διάρκεια 15846
▁diferente 15847
▁spoločnosti 15848
▁especialmente 15849
ziu 15850
рма 15851
щия 15852
▁wr 15853
utto 15854
πότε 15855
стой 15856
▁Bas 15857
delen 15858
ostat 15859
ċċess 15860
▁core 15861
▁requ 15862
▁štát 15863
ultati 15864
▁hands 15865
▁pinig 15866
▁porte 15867
▁stora 15868
▁doktor 15869
▁partea 15870
▁въпрос 15871
otdeauna 15872
▁których 15873
▁laatste 15874
▁million 15875
▁permite 15876
▁kinderen 15877
iți 15878
віт 15879
kite 15880
pekt 15881
taut 15882
view 15883
ριστ 15884
шата 15885
▁Seg 15886
▁Sem 15887
▁бро 15888
▁вну 15889
▁эту 15890
▁cast 15891
▁evid 15892
▁fell 15893
▁maak 15894
▁masz 15895
▁sost 15896
▁želi 15897
▁ümber 15898
▁έκανε 15899
▁заклю 15900
▁għandi 15901
▁legyen 15902
▁nebuvo 15903
▁valami 15904
▁monitor 15905
▁uporablj 15906
xxa 15907
aixo 15908
ință 15909
νετε 15910
▁såg 15911
▁βίν 15912
vezet 15913
льный 15914
▁sija 15915
▁verm 15916
▁võim 15917
▁είχα 15918
▁innan 15919
▁neist 15920
▁niitä 15921
▁wenig 15922
▁протя 15923
▁naudoj 15924
▁example 15925
▁looking 15926
▁technol 15927
▁pjuttost 15928
ļas 15929
šna 15930
βολ 15931
тий 15932
▁ск 15933
cich 15934
дить 15935
▁hob 15936
▁köl 15937
▁vyr 15938
▁змо 15939
▁кам 15940
▁Mein 15941
▁Solo 15942
▁mulți 15943
▁tengo 15944
▁vreau 15945
▁είχαν 15946
▁социа 15947
amentos 15948
▁access 15949
väl 15950
ġib 15951
▁hü 15952
teza 15953
стни 15954
▁Mám 15955
▁fen 15956
▁jik 15957
▁noh 15958
▁øje 15959
▁Dick 15960
▁Ezek 15961
▁Jane 15962
▁Kind 15963
▁body 15964
▁pali 15965
▁told 15966
▁непо 15967
▁aħjar 15968
▁doesn 15969
▁tiszt 15970
▁seotud 15971
scheinlich 15972
aiz 15973
dre 15974
für 15975
ria 15976
ēji 15977
▁Să 15978
ulos 15979
зира 15980
▁iek 15981
▁Προ 15982
▁Вси 15983
iline 15984
▁cort 15985
▁fann 15986
▁poole 15987
▁οικογ 15988
▁стран 15989
▁χρειάζ 15990
▁nechcem 15991
▁δουλειά 15992
▁première 15993
ίτε 15994
νοώ 15995
▁kn 15996
▁ου 15997
▁Ди 15998
auks 15999
hone 16000
чему 16001
▁dai 16002
▁nol 16003
▁rej 16004
anças 16005
famil 16006
indre 16007
jenti 16008
ovaný 16009
μένου 16010
▁kuni 16011
▁infer 16012
▁možná 16013
▁multi 16014
▁prečo 16015
▁пропо 16016
▁nostre 16017
▁familia 16018
▁primera 16019
▁services 16020
▁prijatelj 16021
zó 16022
rau 16023
équ 16024
ței 16025
oksi 16026
uoti 16027
нача 16028
▁Lib 16029
▁avo 16030
▁băr 16031
ancia 16032
iesti 16033
viens 16034
▁izve 16035
▁klub 16036
▁läbi 16037
▁mana 16038
▁функ 16039
kellem 16040
▁immed 16041
▁molte 16042
▁určit 16043
▁інших 16044
ligtvis 16045
▁Cuando 16046
▁extrem 16047
▁iemand 16048
▁valmist 16049
▁некоторые 16050
ел 16051
šia 16052
▁ 16053
e 16054
a 16055
i 16056
n 16057
t 16058
o 16059
s 16060
r 16061
l 16062
d 16063
u 16064
m 16065
k 16066
, 16067
p 16068
v 16069
c 16070
h 16071
g 16072
. 16073
j 16074
о 16075
b 16076
а 16077
z 16078
е 16079
и 16080
y 16081
т 16082
f 16083
н 16084
w 16085
в 16086
р 16087
с 16088
α 16089
л 16090
д 16091
к 16092
ä 16093
м 16094
τ 16095
é 16096
ο 16097
ε 16098
п 16099
á 16100
ι 16101
ν 16102
у 16103
я 16104
з 16105
š 16106
- 16107
і 16108
q 16109
í 16110
б 16111
A 16112
S 16113
σ 16114
ρ 16115
ž 16116
г 16117
π 16118
T 16119
ч 16120
č 16121
' 16122
μ 16123
ā 16124
M 16125
κ 16126
E 16127
υ 16128
ă 16129
D 16130
ö 16131
I 16132
ь 16133
ħ 16134
η 16135
P 16136
N 16137
x 16138
ó 16139
λ 16140
й 16141
ж 16142
ί 16143
å 16144
? 16145
ό 16146
ά 16147
C 16148
х 16149
J 16150
H 16151
B 16152
ы 16153
έ 16154
ü 16155
K 16156
L 16157
ш 16158
O 16159
V 16160
ą 16161
ē 16162
ц 16163
ī 16164
ю 16165
ż 16166
γ 16167
щ 16168
ъ 16169
ł 16170
δ 16171
ý 16172
ę 16173
ė 16174
ě 16175
ω 16176
G 16177
U 16178
R 16179
W 16180
ή 16181
ú 16182
F 16183
ș 16184
χ 16185
ć 16186
õ 16187
ț 16188
θ 16189
ų 16190
î 16191
ύ 16192
ū 16193
ř 16194
ġ 16195
ã 16196
à 16197
ő 16198
ś 16199
æ 16200
ť 16201
ώ 16202
φ 16203
ø 16204
э 16205
ņ 16206
Z 16207
è 16208
є 16209
! 16210
į 16211
β 16212
ф 16213
â 16214
ç 16215
Т 16216
ê 16217
ċ 16218
ї 16219
Н 16220
ξ 16221
В 16222
: 16223
ů 16224
С 16225
ζ 16226
Y 16227
ľ 16228
П 16229
Д 16230
К 16231
М 16232
О 16233
ļ 16234
ô 16235
И 16236
Q 16237
А 16238
Я 16239
Α 16240
Ε 16241
Б 16242
ď 16243
ß 16244
З 16245
Š 16246
Τ 16247
Κ 16248
Е 16249
đ 16250
ű 16251
Σ 16252
ň 16253
¿ 16254
Π 16255
ñ 16256
У 16257
ù 16258
Ο 16259
Μ 16260
ψ 16261
Р 16262
É 16263
ń 16264
Г 16265
ò 16266
Č 16267
ì 16268
Ц 16269
Ș 16270
ķ 16271
Л 16272
Э 16273
Х 16274
Η 16275
Έ 16276
Î 16277
І 16278
Ν 16279
Ч 16280
X 16281
ģ 16282
Δ 16283
Γ 16284
Ž 16285
Ф 16286
ź 16287
Á 16288
È 16289
ë 16290
Θ 16291
Ó 16292
Ό 16293
Ú 16294
Щ 16295
Ш 16296
Λ 16297
Й 16298
Å 16299
¡ 16300
Ü 16301
Ω 16302
Ä 16303
ϊ 16304
û 16305
Ι 16306
Χ 16307
Ρ 16308
Β 16309
Φ 16310
Є 16311
Ħ 16312
Ö 16313
Ή 16314
Υ 16315
ï 16316
Í 16317
œ 16318
Ά 16319
% 16320
Ġ 16321
À 16322
Ж 16323
Ξ 16324
Ю 16325
Ř 16326
Ď 16327
Ő 16328
ŕ 16329
Ċ 16330
Ї 16331
Į 16332
ĺ 16333
Ż 16334
Ā 16335
/ 16336
Ś 16337
Ņ 16338
Ľ 16339
Ζ 16340
ґ 16341
Ç 16342
Õ 16343
Ķ 16344
Ý 16345
Ī 16346
Ł 16347
Ļ 16348
Ț 16349
Ē 16350
Ø 16351
Ă 16352
Ь 16353
Ê 16354
Æ 16355
Ū 16356
Ъ 16357
Ė 16358
Ы 16359
Ģ 16360
Ψ 16361
Ć 16362
Ą 16363
Ã 16364
Ť 16365
Ę 16366
Â 16367
Ґ 16368
Ô 16369
Ě 16370
Ų 16371
$ 16372
Đ 16373
Ź 16374
Ů 16375
€ 16376
Ű 16377
Ň 16378
£ 16379
Ì 16380
Ù 16381
Ń 16382
Œ 16383
